{
  "version": "1.0",
  "truncation": {
    "direction": "Right",
    "max_length": 512,
    "strategy": "LongestFirst",
    "stride": 0
  },
  "padding": {
    "strategy": "BatchLongest",
    "direction": "Right",
    "pad_to_multiple_of": null,
    "pad_id": 0,
    "pad_type_id": 0,
    "pad_token": "[PAD]"
  },
  "added_tokens": [
    {
      "id": 0,
      "content": "[PAD]",
      "single_word": false,
      "lstrip": false,
      "rstrip": false,
      "normalized": false,
      "special": true
    },
    {
      "id": 1,
      "content": "[UNK]",
      "single_word": false,
      "lstrip": false,
      "rstrip": false,
      "normalized": false,
      "special": true
    },
    {
      "id": 2,
      "content": "[CLS]",
      "single_word": false,
      "lstrip": false,
      "rstrip": false,
      "normalized": false,
      "special": true
    },
    {
      "id": 3,
      "content": "[SEP]",
      "single_word": false,
      "lstrip": false,
      "rstrip": false,
      "normalized": false,
      "special": true
    },
    {
      "id": 4,
      "content": "[MASK]",
      "single_word": false,
      "lstrip": false,
      "rstrip": false,
      "normalized": false,
      "special": true
    }
  ],
  "normalizer": {
    "type": "BertNormalizer",
    "clean_text": true,
    "handle_chinese_chars": true,
    "strip_accents": null,
    "lowercase": false
  },
  "pre_tokenizer": {
    "type": "BertPreTokenizer"
  },
  "post_processor": {
    "type": "TemplateProcessing",
    "single": [
      {
        "SpecialToken": {
          "id": "[CLS]",
          "type_id": 0
        }
      },
      {
        "Sequence": {
          "id": "A",
          "type_id": 0
        }
      },
      {
        "SpecialToken": {
          "id": "[SEP]",
          "type_id": 0
        }
      }
    ],
    "pair": [
      {
        "SpecialToken": {
          "id": "[CLS]",
          "type_id": 0
        }
      },
      {
        "Sequence": {
          "id": "A",
          "type_id": 0
        }
      },
      {
        "SpecialToken": {
          "id": "[SEP]",
          "type_id": 0
        }
      },
      {
        "Sequence": {
          "id": "B",
          "type_id": 1
        }
      },
      {
        "SpecialToken": {
          "id": "[SEP]",
          "type_id": 1
        }
      }
    ],
    "special_tokens": {
      "[CLS]": {
        "id": "[CLS]",
        "ids": [
          2
        ],
        "tokens": [
          "[CLS]"
        ]
      },
      "[SEP]": {
        "id": "[SEP]",
        "ids": [
          3
        ],
        "tokens": [
          "[SEP]"
        ]
      }
    }
  },
  "decoder": {
    "type": "WordPiece",
    "prefix": "##",
    "cleanup": true
  },
  "model": {
    "type": "WordPiece",
    "unk_token": "[UNK]",
    "continuing_subword_prefix": "##",
    "max_input_chars_per_word": 100,
    "vocab": {
      "[PAD]": 0,
      "[UNK]": 1,
      "[CLS]": 2,
      "[SEP]": 3,
      "[MASK]": 4,
      "!": 5,
      "\"": 6,
      "#": 7,
      "$": 8,
      "%": 9,
      "&": 10,
      "'": 11,
      "(": 12,
      ")": 13,
      "*": 14,
      "+": 15,
      ",": 16,
      "-": 17,
      ".": 18,
      "/": 19,
      "0": 20,
      "1": 21,
      "2": 22,
      "3": 23,
      "4": 24,
      "5": 25,
      "6": 26,
      "7": 27,
      "8": 28,
      "9": 29,
      ":": 30,
      ";": 31,
      "<": 32,
      "=": 33,
      ">": 34,
      "?": 35,
      "@": 36,
      "A": 37,
      "B": 38,
      "C": 39,
      "D": 40,
      "E": 41,
      "F": 42,
      "G": 43,
      "H": 44,
      "I": 45,
      "J": 46,
      "K": 47,
      "L": 48,
      "M": 49,
      "N": 50,
      "O": 51,
      "P": 52,
      "Q": 53,
      "R": 54,
      "S": 55,
      "T": 56,
      "U": 57,
      "V": 58,
      "W": 59,
      "X": 60,
      "Y": 61,
      "Z": 62,
      "[": 63,
      "\\": 64,
      "]": 65,
      "^": 66,
      "_": 67,
      "a": 68,
      "b": 69,
      "c": 70,
      "d": 71,
      "e": 72,
      "f": 73,
      "g": 74,
      "h": 75,
      "i": 76,
      "j": 77,
      "k": 78,
      "l": 79,
      "m": 80,
      "n": 81,
      "o": 82,
      "p": 83,
      "q": 84,
      "r": 85,
      "s": 86,
      "t": 87,
      "u": 88,
      "v": 89,
      "w": 90,
      "x": 91,
      "y": 92,
      "z": 93,
      "{": 94,
      "}": 95,
      "~": 96,
      "¡": 97,
      "¢": 98,
      "£": 99,
      "¥": 100,
      "§": 101,
      "¨": 102,
      "©": 103,
      "ª": 104,
      "«": 105,
      "¬": 106,
      "®": 107,
      "°": 108,
      "±": 109,
      "²": 110,
      "³": 111,
      "µ": 112,
      "¶": 113,
      "·": 114,
      "¹": 115,
      "º": 116,
      "»": 117,
      "¼": 118,
      "½": 119,
      "¾": 120,
      "À": 121,
      "Á": 122,
      "Â": 123,
      "Ã": 124,
      "Ä": 125,
      "Å": 126,
      "Æ": 127,
      "Ç": 128,
      "È": 129,
      "É": 130,
      "Ê": 131,
      "Í": 132,
      "Î": 133,
      "Ð": 134,
      "Ñ": 135,
      "Ò": 136,
      "Ó": 137,
      "Ô": 138,
      "Õ": 139,
      "Ö": 140,
      "×": 141,
      "Ø": 142,
      "Ú": 143,
      "Ü": 144,
      "Ý": 145,
      "Þ": 146,
      "ß": 147,
      "à": 148,
      "á": 149,
      "â": 150,
      "ã": 151,
      "ä": 152,
      "å": 153,
      "æ": 154,
      "ç": 155,
      "è": 156,
      "é": 157,
      "ë": 158,
      "ì": 159,
      "í": 160,
      "î": 161,
      "ï": 162,
      "ð": 163,
      "ñ": 164,
      "ò": 165,
      "ó": 166,
      "ô": 167,
      "õ": 168,
      "ö": 169,
      "÷": 170,
      "ø": 171,
      "ù": 172,
      "ú": 173,
      "û": 174,
      "ü": 175,
      "þ": 176,
      "Ā": 177,
      "ā": 178,
      "Ą": 179,
      "Č": 180,
      "č": 181,
      "Ď": 182,
      "ď": 183,
      "đ": 184,
      "Ē": 185,
      "Ė": 186,
      "ė": 187,
      "ę": 188,
      "Ğ": 189,
      "ğ": 190,
      "Ģ": 191,
      "Ī": 192,
      "ī": 193,
      "Į": 194,
      "į": 195,
      "İ": 196,
      "ı": 197,
      "Ķ": 198,
      "Ļ": 199,
      "Ľ": 200,
      "ľ": 201,
      "Ł": 202,
      "ō": 203,
      "Ő": 204,
      "Œ": 205,
      "œ": 206,
      "ŕ": 207,
      "Ř": 208,
      "ř": 209,
      "Ś": 210,
      "ś": 211,
      "Ş": 212,
      "ş": 213,
      "Š": 214,
      "š": 215,
      "Ť": 216,
      "ť": 217,
      "Ū": 218,
      "ū": 219,
      "ů": 220,
      "Ź": 221,
      "ź": 222,
      "Ż": 223,
      "ż": 224,
      "Ž": 225,
      "ž": 226,
      "ƒ": 227,
      "ț": 228,
      "ə": 229,
      "ʿ": 230,
      "̃": 231,
      "΄": 232,
      "Β": 233,
      "Δ": 234,
      "Ε": 235,
      "Ζ": 236,
      "Η": 237,
      "Κ": 238,
      "Λ": 239,
      "Ν": 240,
      "Σ": 241,
      "Φ": 242,
      "Χ": 243,
      "Ψ": 244,
      "Ω": 245,
      "α": 246,
      "β": 247,
      "γ": 248,
      "δ": 249,
      "ε": 250,
      "ζ": 251,
      "η": 252,
      "θ": 253,
      "λ": 254,
      "μ": 255,
      "ν": 256,
      "ξ": 257,
      "π": 258,
      "ρ": 259,
      "σ": 260,
      "τ": 261,
      "φ": 262,
      "χ": 263,
      "ψ": 264,
      "ω": 265,
      "Ё": 266,
      "Ђ": 267,
      "Ѓ": 268,
      "Є": 269,
      "Ѕ": 270,
      "І": 271,
      "Ї": 272,
      "Ј": 273,
      "Љ": 274,
      "Њ": 275,
      "Ћ": 276,
      "Ќ": 277,
      "Ў": 278,
      "Џ": 279,
      "А": 280,
      "Б": 281,
      "В": 282,
      "Г": 283,
      "Д": 284,
      "Е": 285,
      "Ж": 286,
      "З": 287,
      "И": 288,
      "Й": 289,
      "К": 290,
      "Л": 291,
      "М": 292,
      "Н": 293,
      "О": 294,
      "П": 295,
      "Р": 296,
      "С": 297,
      "Т": 298,
      "У": 299,
      "Ф": 300,
      "Х": 301,
      "Ц": 302,
      "Ч": 303,
      "Ш": 304,
      "Щ": 305,
      "Ъ": 306,
      "Ы": 307,
      "Ь": 308,
      "Э": 309,
      "Ю": 310,
      "Я": 311,
      "а": 312,
      "б": 313,
      "в": 314,
      "г": 315,
      "д": 316,
      "е": 317,
      "ж": 318,
      "з": 319,
      "и": 320,
      "й": 321,
      "к": 322,
      "л": 323,
      "м": 324,
      "н": 325,
      "о": 326,
      "п": 327,
      "р": 328,
      "с": 329,
      "т": 330,
      "у": 331,
      "ф": 332,
      "х": 333,
      "ц": 334,
      "ч": 335,
      "ш": 336,
      "щ": 337,
      "ъ": 338,
      "ы": 339,
      "ь": 340,
      "э": 341,
      "ю": 342,
      "я": 343,
      "ѐ": 344,
      "ё": 345,
      "ђ": 346,
      "ѓ": 347,
      "є": 348,
      "ѕ": 349,
      "і": 350,
      "ї": 351,
      "ј": 352,
      "љ": 353,
      "њ": 354,
      "ќ": 355,
      "ў": 356,
      "џ": 357,
      "Ґ": 358,
      "ґ": 359,
      "ғ": 360,
      "Қ": 361,
      "қ": 362,
      "ң": 363,
      "Ұ": 364,
      "Ә": 365,
      "ә": 366,
      "Ө": 367,
      "ӯ": 368,
      "Կ": 369,
      "Չ": 370,
      "լ": 371,
      "։": 372,
      "ה": 373,
      "כ": 374,
      "ף": 375,
      "פ": 376,
      "؛": 377,
      "إ": 378,
      "ج": 379,
      "خ": 380,
      "ر": 381,
      "ز": 382,
      "س": 383,
      "ط": 384,
      "ع": 385,
      "ق": 386,
      "ك": 387,
      "م": 388,
      "٠": 389,
      "٩": 390,
      "پ": 391,
      "چ": 392,
      "ک": 393,
      "گ": 394,
      "अ": 395,
      "प": 396,
      "ल": 397,
      "ह": 398,
      "ჟ": 399,
      "ჰ": 400,
      "Ḥ": 401,
      "ḥ": 402,
      "ὁ": 403,
      "‖": 404,
      "‚": 405,
      "„": 406,
      "‟": 407,
      "†": 408,
      "‡": 409,
      "•": 410,
      "‥": 411,
      "‧": 412,
      "‰": 413,
      "′": 414,
      "″": 415,
      "‹": 416,
      "›": 417,
      "※": 418,
      "⁄": 419,
      "€": 420,
      "℃": 421,
      "№": 422,
      "™": 423,
      "Ⅲ": 424,
      "←": 425,
      "↑": 426,
      "→": 427,
      "↓": 428,
      "⇒": 429,
      "∅": 430,
      "∈": 431,
      "−": 432,
      "∗": 433,
      "∙": 434,
      "√": 435,
      "∞": 436,
      "∨": 437,
      "∪": 438,
      "∫": 439,
      "∼": 440,
      "≈": 441,
      "≠": 442,
      "≡": 443,
      "≤": 444,
      "≥": 445,
      "≪": 446,
      "⋅": 447,
      "③": 448,
      "─": 449,
      "│": 450,
      "└": 451,
      "■": 452,
      "□": 453,
      "▪": 454,
      "▲": 455,
      "►": 456,
      "▼": 457,
      "◆": 458,
      "○": 459,
      "◎": 460,
      "●": 461,
      "★": 462,
      "☆": 463,
      "☉": 464,
      "♠": 465,
      "♦": 466,
      "♪": 467,
      "、": 468,
      "。": 469,
      "《": 470,
      "》": 471,
      "「": 472,
      "」": 473,
      "【": 474,
      "】": 475,
      "っ": 476,
      "で": 477,
      "の": 478,
      "み": 479,
      "れ": 480,
      "ア": 481,
      "ダ": 482,
      "マ": 483,
      "・": 484,
      "ー": 485,
      "一": 486,
      "丁": 487,
      "三": 488,
      "上": 489,
      "业": 490,
      "严": 491,
      "中": 492,
      "五": 493,
      "京": 494,
      "人": 495,
      "仙": 496,
      "伊": 497,
      "低": 498,
      "何": 499,
      "全": 500,
      "八": 501,
      "公": 502,
      "农": 503,
      "利": 504,
      "到": 505,
      "務": 506,
      "北": 507,
      "区": 508,
      "医": 509,
      "千": 510,
      "南": 511,
      "原": 512,
      "口": 513,
      "古": 514,
      "台": 515,
      "后": 516,
      "告": 517,
      "咏": 518,
      "器": 519,
      "四": 520,
      "回": 521,
      "大": 522,
      "市": 523,
      "海": 524,
      "町": 525,
      "路": 526,
      "（": 527,
      "）": 528,
      "：": 529,
      "de": 530,
      "the": 531,
      "in": 532,
      "##s": 533,
      "of": 534,
      "la": 535,
      "en": 536,
      "and": 537,
      "##e": 538,
      "##a": 539,
      "to": 540,
      "##n": 541,
      "##i": 542,
      "The": 543,
      "der": 544,
      "un": 545,
      "di": 546,
      "que": 547,
      "на": 548,
      "##t": 549,
      "is": 550,
      "el": 551,
      "se": 552,
      "del": 553,
      "die": 554,
      "##r": 555,
      "und": 556,
      "et": 557,
      "na": 558,
      "##o": 559,
      "was": 560,
      "on": 561,
      "##en": 562,
      "##u": 563,
      "des": 564,
      "den": 565,
      "le": 566,
      "for": 567,
      "da": 568,
      "je": 569,
      "van": 570,
      "as": 571,
      "##m": 572,
      "sa": 573,
      "do": 574,
      "10": 575,
      "an": 576,
      "les": 577,
      "una": 578,
      "il": 579,
      "by": 580,
      "og": 581,
      "##y": 582,
      "2011": 583,
      "La": 584,
      "at": 585,
      "##l": 586,
      "##d": 587,
      "er": 588,
      "al": 589,
      "##er": 590,
      "von": 591,
      "In": 592,
      "du": 593,
      "with": 594,
      "av": 595,
      "##es": 596,
      "med": 597,
      "con": 598,
      "##k": 599,
      "2010": 600,
      "est": 601,
      "per": 602,
      "##а": 603,
      "2000": 604,
      "som": 605,
      "los": 606,
      "por": 607,
      "2012": 608,
      "12": 609,
      "from": 610,
      "that": 611,
      "De": 612,
      "##и": 613,
      "no": 614,
      "11": 615,
      "2014": 616,
      "2009": 617,
      "es": 618,
      "20": 619,
      "su": 620,
      "ISBN": 621,
      "ja": 622,
      "2007": 623,
      "2008": 624,
      "km": 625,
      "##е": 626,
      "##an": 627,
      "2013": 628,
      "15": 629,
      "om": 630,
      "im": 631,
      "com": 632,
      "##ta": 633,
      "2006": 634,
      "dan": 635,
      "##te": 636,
      "18": 637,
      "##na": 638,
      "para": 639,
      "mit": 640,
      "2015": 641,
      "El": 642,
      "his": 643,
      "##у": 644,
      "ha": 645,
      "##da": 646,
      "##ing": 647,
      "une": 648,
      "24": 649,
      "за": 650,
      "Den": 651,
      "Die": 652,
      "##h": 653,
      "##ne": 654,
      "##g": 655,
      "##м": 656,
      "das": 657,
      "En": 658,
      "30": 659,
      "##in": 660,
      "##re": 661,
      "14": 662,
      "par": 663,
      "13": 664,
      "16": 665,
      "##us": 666,
      "2005": 667,
      "##de": 668,
      "2016": 669,
      "au": 670,
      "25": 671,
      "000": 672,
      "dans": 673,
      "he": 674,
      "che": 675,
      "##on": 676,
      "2004": 677,
      "em": 678,
      "##н": 679,
      "dem": 680,
      "##ch": 681,
      "19": 682,
      "it": 683,
      "2001": 684,
      "17": 685,
      "°C": 686,
      "til": 687,
      "2002": 688,
      "се": 689,
      "han": 690,
      "##ia": 691,
      "Le": 692,
      "Il": 693,
      "##le": 694,
      "las": 695,
      "della": 696,
      "New": 697,
      "##ra": 698,
      "##is": 699,
      "##ы": 700,
      "um": 701,
      "si": 702,
      "2003": 703,
      "21": 704,
      "по": 705,
      "var": 706,
      "are": 707,
      "2017": 708,
      "op": 709,
      "zu": 710,
      "##z": 711,
      "22": 712,
      "##et": 713,
      "were": 714,
      "##os": 715,
      "od": 716,
      "son": 717,
      "An": 718,
      "26": 719,
      "World": 720,
      "##о": 721,
      "##do": 722,
      "which": 723,
      "##ja": 724,
      "va": 725,
      "pour": 726,
      "ve": 727,
      "1999": 728,
      "##ti": 729,
      "sur": 730,
      "23": 731,
      "##la": 732,
      "от": 733,
      "##é": 734,
      "года": 735,
      "II": 736,
      "##ed": 737,
      "Life": 738,
      "war": 739,
      "za": 740,
      "##to": 741,
      "##se": 742,
      "##ni": 743,
      "##no": 744,
      "до": 745,
      "or": 746,
      "be": 747,
      "28": 748,
      "det": 749,
      "##c": 750,
      "##т": 751,
      "##і": 752,
      "##х": 753,
      "##ar": 754,
      "qui": 755,
      "He": 756,
      "az": 757,
      "te": 758,
      "##va": 759,
      "1998": 760,
      "##ом": 761,
      "27": 762,
      "mm": 763,
      "##та": 764,
      "##nt": 765,
      "##ma": 766,
      "##ka": 767,
      "had": 768,
      "не": 769,
      "##ng": 770,
      "It": 771,
      "also": 772,
      "so": 773,
      "##je": 774,
      "##й": 775,
      "##я": 776,
      "29": 777,
      "из": 778,
      "1996": 779,
      "##li": 780,
      "1997": 781,
      "am": 782,
      "has": 783,
      "dos": 784,
      "ur": 785,
      "##ie": 786,
      "##ri": 787,
      "entre": 788,
      "##as": 789,
      "University": 790,
      "да": 791,
      "lo": 792,
      "100": 793,
      "##на": 794,
      "##p": 795,
      "era": 796,
      "31": 797,
      "ni": 798,
      "##al": 799,
      "##j": 800,
      "##ce": 801,
      "1990": 802,
      "John": 803,
      "first": 804,
      "##ca": 805,
      "##ment": 806,
      "os": 807,
      "met": 808,
      "од": 809,
      "ou": 810,
      "##ов": 811,
      "2018": 812,
      "all": 813,
      "1995": 814,
      "во": 815,
      "##ko": 816,
      "aus": 817,
      "1991": 818,
      "##ó": 819,
      "1994": 820,
      "Der": 821,
      "non": 822,
      "##si": 823,
      "1992": 824,
      "##em": 825,
      "af": 826,
      "har": 827,
      "##ly": 828,
      "their": 829,
      "ar": 830,
      "##b": 831,
      "film": 832,
      "50": 833,
      "1993": 834,
      "one": 835,
      "##um": 836,
      "##sa": 837,
      "bis": 838,
      "Les": 839,
      "San": 840,
      "##ă": 841,
      "not": 842,
      "but": 843,
      "its": 844,
      "та": 845,
      "##v": 846,
      "ir": 847,
      "who": 848,
      "ny": 849,
      "York": 850,
      "##ga": 851,
      "her": 852,
      "##it": 853,
      "ang": 854,
      "Mexico": 855,
      "over": 856,
      "bei": 857,
      "ser": 858,
      "www": 859,
      "году": 860,
      "dei": 861,
      "##mi": 862,
      "##ki": 863,
      "##ми": 864,
      "##к": 865,
      "##с": 866,
      "po": 867,
      "History": 868,
      "##л": 869,
      "##р": 870,
      "для": 871,
      "##ка": 872,
      "door": 873,
      "UK": 874,
      "1989": 875,
      "##ge": 876,
      "##at": 877,
      "dat": 878,
      "runt": 879,
      "have": 880,
      "this": 881,
      "40": 882,
      "American": 883,
      "##ba": 884,
      "1980": 885,
      "ed": 886,
      "##в": 887,
      "species": 888,
      "##í": 889,
      "##ur": 890,
      "este": 891,
      "1988": 892,
      "ya": 893,
      "##ke": 894,
      "two": 895,
      "ne": 896,
      "http": 897,
      "Ang": 898,
      "amb": 899,
      "##st": 900,
      "plus": 901,
      "##ro": 902,
      "Press": 903,
      "##el": 904,
      "under": 905,
      "##f": 906,
      "On": 907,
      "1986": 908,
      "zum": 909,
      "1987": 910,
      "1985": 911,
      "978": 912,
      "meter": 913,
      "су": 914,
      "men": 915,
      "##man": 916,
      "been": 917,
      "dell": 918,
      "ini": 919,
      "##ю": 920,
      "din": 921,
      "September": 922,
      "1984": 923,
      "##ci": 924,
      "Saint": 925,
      "##ul": 926,
      "##ndo": 927,
      "album": 928,
      "1970": 929,
      "qu": 930,
      "United": 931,
      "ao": 932,
      "##mente": 933,
      "##ve": 934,
      "mais": 935,
      "Annual": 936,
      "Kirk": 937,
      "##ся": 938,
      "oli": 939,
      "##me": 940,
      "fra": 941,
      "Reading": 942,
      "Los": 943,
      "Michael": 944,
      "sie": 945,
      "##den": 946,
      "time": 947,
      "##но": 948,
      "##za": 949,
      "##io": 950,
      "NASA": 951,
      "1982": 952,
      "1983": 953,
      "##ки": 954,
      "III": 955,
      "1981": 956,
      "National": 957,
      "##ни": 958,
      "No": 959,
      "DEM": 960,
      "##á": 961,
      "after": 962,
      "1975": 963,
      "Det": 964,
      "##or": 965,
      "part": 966,
      "01": 967,
      "1945": 968,
      "dia": 969,
      "Das": 970,
      "##ла": 971,
      "1979": 972,
      "##nya": 973,
      "1972": 974,
      "come": 975,
      "##ya": 976,
      "red": 977,
      "##ten": 978,
      "other": 979,
      "Na": 980,
      "##x": 981,
      "France": 982,
      "they": 983,
      "##om": 984,
      "1978": 985,
      "William": 986,
      "##не": 987,
      "##те": 988,
      "1968": 989,
      "1960": 990,
      "был": 991,
      "##di": 992,
      "1976": 993,
      "##kan": 994,
      "##ek": 995,
      "into": 996,
      "60": 997,
      "##ak": 998,
      "till": 999,
      "##ı": 1000,
      "##lo": 1001,
      "##ung": 1002,
      "ble": 1003,
      "06": 1004,
      "##ів": 1005,
      "1977": 1006,
      "1974": 1007,
      "1973": 1008,
      "May": 1009,
      "aan": 1010,
      "Paris": 1011,
      "##2": 1012,
      "ka": 1013,
      "##S": 1014,
      "1971": 1015,
      "org": 1016,
      "Mer": 1017,
      "August": 1018,
      "mai": 1019,
      "##A": 1020,
      "up": 1021,
      "ng": 1022,
      "##д": 1023,
      "This": 1024,
      "new": 1025,
      "##то": 1026,
      "aux": 1027,
      "##ny": 1028,
      "500": 1029,
      "##ho": 1030,
      "##1": 1031,
      "##ju": 1032,
      "1969": 1033,
      "Jean": 1034,
      "International": 1035,
      "Paul": 1036,
      "City": 1037,
      "##lar": 1038,
      "##ji": 1039,
      "200": 1040,
      "На": 1041,
      "км": 1042,
      "April": 1043,
      "##ли": 1044,
      "att": 1045,
      "что": 1046,
      "iz": 1047,
      "ce": 1048,
      "sin": 1049,
      "Im": 1050,
      "##go": 1051,
      "more": 1052,
      "nan": 1053,
      "1967": 1054,
      "pas": 1055,
      "35": 1056,
      "David": 1057,
      "ei": 1058,
      "##ts": 1059,
      "US": 1060,
      "1950": 1061,
      "##co": 1062,
      "TV": 1063,
      "04": 1064,
      "##ler": 1065,
      "##à": 1066,
      "man": 1067,
      "Han": 1068,
      "November": 1069,
      "Robert": 1070,
      "##tion": 1071,
      "##г": 1072,
      "ma": 1073,
      "1944": 1074,
      "45": 1075,
      "1962": 1076,
      "London": 1077,
      "05": 1078,
      "80": 1079,
      "she": 1080,
      "##ir": 1081,
      "St": 1082,
      "1965": 1083,
      "ad": 1084,
      "when": 1085,
      "32": 1086,
      "65": 1087,
      "sus": 1088,
      "due": 1089,
      "##ь": 1090,
      "##ва": 1091,
      "##ku": 1092,
      "cu": 1093,
      "years": 1094,
      "1964": 1095,
      "1966": 1096,
      "##C": 1097,
      "States": 1098,
      "fan": 1099,
      "Het": 1100,
      "са": 1101,
      "##ze": 1102,
      "later": 1103,
      "##w": 1104,
      "1961": 1105,
      "##ter": 1106,
      "07": 1107,
      "ki": 1108,
      "или": 1109,
      "1941": 1110,
      "As": 1111,
      "Al": 1112,
      "##3": 1113,
      "##ë": 1114,
      "County": 1115,
      "1940": 1116,
      "##ns": 1117,
      "only": 1118,
      "would": 1119,
      "1939": 1120,
      "##ik": 1121,
      "James": 1122,
      "##ers": 1123,
      "1963": 1124,
      "03": 1125,
      "##ry": 1126,
      "me": 1127,
      "Es": 1128,
      "при": 1129,
      "Er": 1130,
      "##sen": 1131,
      "90": 1132,
      "##des": 1133,
      "##ha": 1134,
      "70": 1135,
      "year": 1136,
      "Charles": 1137,
      "##ban": 1138,
      "##ен": 1139,
      "##0": 1140,
      "pa": 1141,
      "его": 1142,
      "during": 1143,
      "where": 1144,
      "ze": 1145,
      "##rs": 1146,
      "can": 1147,
      "1958": 1148,
      "between": 1149,
      "как": 1150,
      "out": 1151,
      "wie": 1152,
      "George": 1153,
      "со": 1154,
      "him": 1155,
      "##ти": 1156,
      "##ben": 1157,
      "alle": 1158,
      "##ren": 1159,
      "##ных": 1160,
      "##sta": 1161,
      "1956": 1162,
      "##rt": 1163,
      "about": 1164,
      "Peter": 1165,
      "1959": 1166,
      "02": 1167,
      "School": 1168,
      "comme": 1169,
      "##да": 1170,
      "1943": 1171,
      "##го": 1172,
      "##tu": 1173,
      "most": 1174,
      "##ма": 1175,
      "33": 1176,
      "three": 1177,
      "1948": 1178,
      "fu": 1179,
      "##am": 1180,
      "##ou": 1181,
      "##4": 1182,
      "Earth": 1183,
      "##ä": 1184,
      "ben": 1185,
      "##от": 1186,
      "1942": 1187,
      "made": 1188,
      "англ": 1189,
      "##ria": 1190,
      "ye": 1191,
      "##ov": 1192,
      "00": 1193,
      "1957": 1194,
      "1930": 1195,
      "1920": 1196,
      "##il": 1197,
      "used": 1198,
      "1954": 1199,
      "##mo": 1200,
      "09": 1201,
      "vom": 1202,
      "##wa": 1203,
      "Un": 1204,
      "##jo": 1205,
      "##ica": 1206,
      "##be": 1207,
      "Se": 1208,
      "##ion": 1209,
      "such": 1210,
      "##ного": 1211,
      "08": 1212,
      "known": 1213,
      "36": 1214,
      "South": 1215,
      "ta": 1216,
      "then": 1217,
      "он": 1218,
      "USA": 1219,
      "##ken": 1220,
      "1946": 1221,
      "You": 1222,
      "Maria": 1223,
      "##ina": 1224,
      "34": 1225,
      "final": 1226,
      "1955": 1227,
      "League": 1228,
      "##ной": 1229,
      "population": 1230,
      "##п": 1231,
      "##ра": 1232,
      "##land": 1233,
      "1938": 1234,
      "##lla": 1235,
      "than": 1236,
      "nu": 1237,
      "1953": 1238,
      "##ine": 1239,
      "##T": 1240,
      "##ный": 1241,
      "300": 1242,
      "IV": 1243,
      "1949": 1244,
      "Thomas": 1245,
      "1918": 1246,
      "India": 1247,
      "1952": 1248,
      "All": 1249,
      "State": 1250,
      "##ской": 1251,
      "##un": 1252,
      "Oxford": 1253,
      "club": 1254,
      "July": 1255,
      "1947": 1256,
      "##zione": 1257,
      "Richard": 1258,
      "##che": 1259,
      "June": 1260,
      "team": 1261,
      "Az": 1262,
      "1936": 1263,
      "44": 1264,
      "##P": 1265,
      "##ner": 1266,
      "##ic": 1267,
      "care": 1268,
      "second": 1269,
      "ca": 1270,
      "##ok": 1271,
      "##ig": 1272,
      "##th": 1273,
      "March": 1274,
      "##nu": 1275,
      "##ш": 1276,
      "She": 1277,
      "some": 1278,
      "##ada": 1279,
      "Santa": 1280,
      "there": 1281,
      "##ste": 1282,
      "##ut": 1283,
      "British": 1284,
      "pe": 1285,
      "Film": 1286,
      "ke": 1287,
      "West": 1288,
      "data": 1289,
      "##5": 1290,
      "gli": 1291,
      "area": 1292,
      "co": 1293,
      "38": 1294,
      "1937": 1295,
      "born": 1296,
      "400": 1297,
      "any": 1298,
      "became": 1299,
      "##dos": 1300,
      "##ton": 1301,
      "##ского": 1302,
      "##que": 1303,
      "vor": 1304,
      "##ку": 1305,
      "place": 1306,
      "Berlin": 1307,
      "##ные": 1308,
      "##ty": 1309,
      "##tes": 1310,
      "including": 1311,
      "1951": 1312,
      "pod": 1313,
      "##ble": 1314,
      "37": 1315,
      "##das": 1316,
      "well": 1317,
      "cm": 1318,
      "##gi": 1319,
      "##6": 1320,
      "October": 1321,
      "##nen": 1322,
      "General": 1323,
      "through": 1324,
      "being": 1325,
      "North": 1326,
      "season": 1327,
      "##nte": 1328,
      "##ll": 1329,
      "##ea": 1330,
      "##res": 1331,
      "Martin": 1332,
      "##ant": 1333,
      "January": 1334,
      "Park": 1335,
      "##ан": 1336,
      "##vo": 1337,
      "1933": 1338,
      "Love": 1339,
      "##id": 1340,
      "hat": 1341,
      "ko": 1342,
      "##ssa": 1343,
      "database": 1344,
      "Po": 1345,
      "Society": 1346,
      "cho": 1347,
      "##ть": 1348,
      "##E": 1349,
      "##ck": 1350,
      "tra": 1351,
      "fost": 1352,
      "##les": 1353,
      "##ning": 1354,
      "##lle": 1355,
      "1935": 1356,
      "##ado": 1357,
      "##R": 1358,
      "##B": 1359,
      "##ske": 1360,
      "42": 1361,
      "War": 1362,
      "но": 1363,
      "##gen": 1364,
      "##I": 1365,
      "##zi": 1366,
      "1934": 1367,
      "pro": 1368,
      "1919": 1369,
      "December": 1370,
      "Em": 1371,
      "##ot": 1372,
      "##ой": 1373,
      "##ist": 1374,
      "64": 1375,
      "##nie": 1376,
      "##ista": 1377,
      "many": 1378,
      "48": 1379,
      "After": 1380,
      "39": 1381,
      "##der": 1382,
      "##7": 1383,
      "1914": 1384,
      "##ны": 1385,
      "nord": 1386,
      "pp": 1387,
      "##vi": 1388,
      "Database": 1389,
      "Europa": 1390,
      "Club": 1391,
      "Music": 1392,
      "Grand": 1393,
      "ci": 1394,
      "де": 1395,
      "name": 1396,
      "Museum": 1397,
      "against": 1398,
      "prima": 1399,
      "fait": 1400,
      "1932": 1401,
      "Louis": 1402,
      "##nia": 1403,
      "1929": 1404,
      "will": 1405,
      "total": 1406,
      "One": 1407,
      "bi": 1408,
      "Man": 1409,
      "1928": 1410,
      "them": 1411,
      "ai": 1412,
      "##га": 1413,
      "##berg": 1414,
      "41": 1415,
      "як": 1416,
      "nur": 1417,
      "##pe": 1418,
      "world": 1419,
      "ab": 1420,
      "55": 1421,
      "##pa": 1422,
      "before": 1423,
      "original": 1424,
      "family": 1425,
      "series": 1426,
      "won": 1427,
      "1917": 1428,
      "##L": 1429,
      "43": 1430,
      "while": 1431,
      "ale": 1432,
      "##9": 1433,
      "single": 1434,
      "Joseph": 1435,
      "uno": 1436,
      "##nde": 1437,
      "1931": 1438,
      "##ский": 1439,
      "may": 1440,
      "state": 1441,
      "general": 1442,
      "##tas": 1443,
      "Records": 1444,
      "school": 1445,
      "solo": 1446,
      "##8": 1447,
      "Art": 1448,
      "For": 1449,
      "##ski": 1450,
      "##O": 1451,
      "base": 1452,
      "##ent": 1453,
      "via": 1454,
      "nom": 1455,
      "both": 1456,
      "47": 1457,
      "1924": 1458,
      "75": 1459,
      "##men": 1460,
      "ex": 1461,
      "work": 1462,
      "people": 1463,
      "под": 1464,
      "Encyclopedia": 1465,
      "области": 1466,
      "gran": 1467,
      "##ски": 1468,
      "##lu": 1469,
      "local": 1470,
      "mars": 1471,
      "America": 1472,
      "Lake": 1473,
      "1927": 1474,
      "until": 1475,
      "##ky": 1476,
      "##ger": 1477,
      "##G": 1478,
      "также": 1479,
      "была": 1480,
      "##ý": 1481,
      "College": 1482,
      "##ца": 1483,
      "Union": 1484,
      "Ny": 1485,
      "##du": 1486,
      "1922": 1487,
      "##cia": 1488,
      "1925": 1489,
      "##ura": 1490,
      "1921": 1491,
      "To": 1492,
      "wa": 1493,
      "1926": 1494,
      "contra": 1495,
      "Van": 1496,
      "##ii": 1497,
      "##sk": 1498,
      "По": 1499,
      "##ol": 1500,
      "##ska": 1501,
      "history": 1502,
      "number": 1503,
      "##ad": 1504,
      "##D": 1505,
      "##них": 1506,
      "го": 1507,
      "##nes": 1508,
      "##mento": 1509,
      "bu": 1510,
      "Am": 1511,
      "##ия": 1512,
      "Nach": 1513,
      "1912": 1514,
      "February": 1515,
      "##ї": 1516,
      "System": 1517,
      "Award": 1518,
      "King": 1519,
      "anni": 1520,
      "##M": 1521,
      "Las": 1522,
      "bat": 1523,
      "hi": 1524,
      "1923": 1525,
      "51": 1526,
      "52": 1527,
      "Nacional": 1528,
      "##tt": 1529,
      "46": 1530,
      "FC": 1531,
      "##by": 1532,
      "sem": 1533,
      "##ний": 1534,
      "##lt": 1535,
      "##nd": 1536,
      "##N": 1537,
      "released": 1538,
      "##ien": 1539,
      "##ai": 1540,
      "Elle": 1541,
      "Cup": 1542,
      "House": 1543,
      "sig": 1544,
      "##ная": 1545,
      "##ий": 1546,
      "called": 1547,
      "played": 1548,
      "Italia": 1549,
      "##ке": 1550,
      "same": 1551,
      "##F": 1552,
      "##ст": 1553,
      "1900": 1554,
      "band": 1555,
      "##з": 1556,
      "end": 1557,
      "nos": 1558,
      "River": 1559,
      "ду": 1560,
      "##он": 1561,
      "49": 1562,
      "было": 1563,
      "Sie": 1564,
      "city": 1565,
      "1910": 1566,
      "Washington": 1567,
      "##ach": 1568,
      "Me": 1569,
      "My": 1570,
      "##are": 1571,
      "China": 1572,
      "Tour": 1573,
      "Royal": 1574,
      "His": 1575,
      "four": 1576,
      "##son": 1577,
      "ing": 1578,
      "Henry": 1579,
      "##ло": 1580,
      "##ert": 1581,
      "1913": 1582,
      "village": 1583,
      "##len": 1584,
      "Pierre": 1585,
      "based": 1586,
      "Dr": 1587,
      "##ет": 1588,
      "li": 1589,
      "English": 1590,
      "tre": 1591,
      "vid": 1592,
      "Italy": 1593,
      "##ron": 1594,
      "California": 1595,
      "##ita": 1596,
      "##ко": 1597,
      "##ies": 1598,
      "##ire": 1599,
      "56": 1600,
      "##ian": 1601,
      "##ana": 1602,
      "Canada": 1603,
      "re": 1604,
      "##cht": 1605,
      "Red": 1606,
      "##he": 1607,
      "##bi": 1608,
      "CD": 1609,
      "были": 1610,
      "IC": 1611,
      "principal": 1612,
      "54": 1613,
      "время": 1614,
      "Indonesia": 1615,
      "kilometer": 1616,
      "sud": 1617,
      "game": 1618,
      "то": 1619,
      "##lich": 1620,
      "Italian": 1621,
      "##so": 1622,
      "anno": 1623,
      "##ische": 1624,
      "Smith": 1625,
      "version": 1626,
      "##ks": 1627,
      "ug": 1628,
      "##ud": 1629,
      "##ru": 1630,
      "1915": 1631,
      "public": 1632,
      "Juan": 1633,
      "dit": 1634,
      "##ным": 1635,
      "long": 1636,
      "They": 1637,
      "Cambridge": 1638,
      "At": 1639,
      "England": 1640,
      "##q": 1641,
      "Air": 1642,
      "##au": 1643,
      "коды": 1644,
      "##ier": 1645,
      "##cy": 1646,
      "За": 1647,
      "што": 1648,
      "##mu": 1649,
      "##ник": 1650,
      "Center": 1651,
      "BBC": 1652,
      "There": 1653,
      "##ida": 1654,
      "Madrid": 1655,
      "Runt": 1656,
      "Australia": 1657,
      "Best": 1658,
      "sau": 1659,
      "early": 1660,
      "##K": 1661,
      "ut": 1662,
      "several": 1663,
      "1911": 1664,
      "Company": 1665,
      "Don": 1666,
      "Si": 1667,
      "##ей": 1668,
      "##ч": 1669,
      "##ls": 1670,
      "Black": 1671,
      "Association": 1672,
      "##ну": 1673,
      "53": 1674,
      "Christian": 1675,
      "dont": 1676,
      "##im": 1677,
      "use": 1678,
      "84": 1679,
      "these": 1680,
      "Hall": 1681,
      "since": 1682,
      "150": 1683,
      "Europe": 1684,
      "Hans": 1685,
      "ten": 1686,
      "Festival": 1687,
      "land": 1688,
      "former": 1689,
      "##ри": 1690,
      "##ini": 1691,
      "##V": 1692,
      "UTC": 1693,
      "##han": 1694,
      "go": 1695,
      "Mai": 1696,
      "1916": 1697,
      "system": 1698,
      "##bo": 1699,
      "Do": 1700,
      "Daniel": 1701,
      "Roma": 1702,
      "group": 1703,
      "600": 1704,
      "Francisco": 1705,
      "##nin": 1706,
      "##му": 1707,
      "Jan": 1708,
      "##ation": 1709,
      "1905": 1710,
      "##tor": 1711,
      "же": 1712,
      "home": 1713,
      "57": 1714,
      "Da": 1715,
      "1908": 1716,
      "дар": 1717,
      "##dae": 1718,
      "found": 1719,
      "58": 1720,
      "station": 1721,
      "fin": 1722,
      "##ius": 1723,
      "East": 1724,
      "##сь": 1725,
      "Marie": 1726,
      "Star": 1727,
      "music": 1728,
      "post": 1729,
      "national": 1730,
      "high": 1731,
      "set": 1732,
      "Island": 1733,
      "##dor": 1734,
      "like": 1735,
      "##ле": 1736,
      "1907": 1737,
      "##ux": 1738,
      "mas": 1739,
      "##vat": 1740,
      "now": 1741,
      "ra": 1742,
      "##nda": 1743,
      "Karl": 1744,
      "##lik": 1745,
      "##idae": 1746,
      "59": 1747,
      "fut": 1748,
      "Frank": 1749,
      "Antonio": 1750,
      "##iu": 1751,
      "Stadt": 1752,
      "##ker": 1753,
      "Central": 1754,
      "ga": 1755,
      "nei": 1756,
      "##ang": 1757,
      "##ды": 1758,
      "Japan": 1759,
      "French": 1760,
      "kg": 1761,
      "XIX": 1762,
      "show": 1763,
      "off": 1764,
      "##ок": 1765,
      "800": 1766,
      "following": 1767,
      "##ии": 1768,
      "##ua": 1769,
      "##chen": 1770,
      "itu": 1771,
      "##ico": 1772,
      "##ted": 1773,
      "premier": 1774,
      "European": 1775,
      "ban": 1776,
      "Bu": 1777,
      "##ice": 1778,
      "Open": 1779,
      "site": 1780,
      "после": 1781,
      "major": 1782,
      "##hi": 1783,
      "Band": 1784,
      "Journal": 1785,
      "1906": 1786,
      "Od": 1787,
      "art": 1788,
      "1904": 1789,
      "day": 1790,
      "began": 1791,
      "##ive": 1792,
      "century": 1793,
      "1909": 1794,
      "##ling": 1795,
      "each": 1796,
      "##ity": 1797,
      "we": 1798,
      "##ata": 1799,
      "located": 1800,
      "було": 1801,
      "High": 1802,
      "##dir": 1803,
      "District": 1804,
      "Street": 1805,
      "село": 1806,
      "##sti": 1807,
      "Als": 1808,
      "##gan": 1809,
      "год": 1810,
      "##ven": 1811,
      "Zeit": 1812,
      "##ер": 1813,
      "95": 1814,
      "##ская": 1815,
      "Per": 1816,
      "Edward": 1817,
      "##zen": 1818,
      "Division": 1819,
      "net": 1820,
      "service": 1821,
      "##ui": 1822,
      "held": 1823,
      "Population": 1824,
      "Mark": 1825,
      "##ei": 1826,
      "Time": 1827,
      "Land": 1828,
      "Nord": 1829,
      "Lee": 1830,
      "##°": 1831,
      "member": 1832,
      "населения": 1833,
      "song": 1834,
      "##ци": 1835,
      "##rio": 1836,
      "back": 1837,
      "##era": 1838,
      "##са": 1839,
      "85": 1840,
      "##ова": 1841,
      "Times": 1842,
      "##U": 1843,
      "##rd": 1844,
      "##ж": 1845,
      "German": 1846,
      "##nik": 1847,
      "bien": 1848,
      "##ин": 1849,
      "Institute": 1850,
      "Is": 1851,
      "sul": 1852,
      "named": 1853,
      "##ами": 1854,
      "hun": 1855,
      "seg": 1856,
      "##ville": 1857,
      "##sch": 1858,
      "government": 1859,
      "120": 1860,
      "Carlos": 1861,
      "км²": 1862,
      "Group": 1863,
      "##lan": 1864,
      "unha": 1865,
      "##tan": 1866,
      "nad": 1867,
      "##ene": 1868,
      "Alexander": 1869,
      "их": 1870,
      "Live": 1871,
      "62": 1872,
      "XX": 1873,
      "РФ": 1874,
      "като": 1875,
      "Према": 1876,
      "88": 1877,
      "Hij": 1878,
      "large": 1879,
      "video": 1880,
      "Modern": 1881,
      "mot": 1882,
      "Radio": 1883,
      "Os": 1884,
      "age": 1885,
      "##lor": 1886,
      "##сы": 1887,
      "##zo": 1888,
      "##cie": 1889,
      "company": 1890,
      "##ure": 1891,
      "life": 1892,
      "##ley": 1893,
      "district": 1894,
      "його": 1895,
      "Rio": 1896,
      "##ran": 1897,
      "през": 1898,
      "Barcelona": 1899,
      "São": 1900,
      "production": 1901,
      "line": 1902,
      "##ль": 1903,
      "##ын": 1904,
      "72": 1905,
      "meg": 1906,
      "##ere": 1907,
      "так": 1908,
      "##ris": 1909,
      "main": 1910,
      "fr": 1911,
      "First": 1912,
      "##kin": 1913,
      "##tte": 1914,
      "mi": 1915,
      "ali": 1916,
      "Index": 1917,
      "White": 1918,
      "Team": 1919,
      "##ting": 1920,
      "social": 1921,
      "Information": 1922,
      "##dan": 1923,
      "Science": 1924,
      "Una": 1925,
      "took": 1926,
      "##nce": 1927,
      "России": 1928,
      "left": 1929,
      "##ском": 1930,
      "Rock": 1931,
      "Data": 1932,
      "Op": 1933,
      "around": 1934,
      "did": 1935,
      "could": 1936,
      "1903": 1937,
      "Mary": 1938,
      "##bu": 1939,
      "82": 1940,
      "##ц": 1941,
      "built": 1942,
      "##ска": 1943,
      "capital": 1944,
      "1000": 1945,
      "99": 1946,
      "form": 1947,
      "##сти": 1948,
      "##tta": 1949,
      "##ты": 1950,
      "Friedrich": 1951,
      "However": 1952,
      "Ein": 1953,
      "fa": 1954,
      "##ber": 1955,
      "250": 1956,
      "66": 1957,
      "News": 1958,
      "region": 1959,
      "town": 1960,
      "From": 1961,
      "##ale": 1962,
      "86": 1963,
      "Carl": 1964,
      "lan": 1965,
      "pre": 1966,
      "##ство": 1967,
      "Angeles": 1968,
      "##val": 1969,
      "Simon": 1970,
      "kom": 1971,
      "When": 1972,
      "##ère": 1973,
      "##burg": 1974,
      "rock": 1975,
      "side": 1976,
      "где": 1977,
      "play": 1978,
      "present": 1979,
      "1901": 1980,
      "63": 1981,
      "##ah": 1982,
      "СССР": 1983,
      "sy": 1984,
      "VI": 1985,
      "Brasil": 1986,
      "##де": 1987,
      "##ния": 1988,
      "Su": 1989,
      "Von": 1990,
      "Tom": 1991,
      "##age": 1992,
      "if": 1993,
      "##sche": 1994,
      "##tus": 1995,
      "##є": 1996,
      "Atlas": 1997,
      "water": 1998,
      "##ksi": 1999,
      "Hill": 2000,
      "##ique": 2001,
      "kingdom": 2002,
      "received": 2003,
      "bio": 2004,
      "Jones": 2005,
      "Anna": 2006,
      "##ano": 2007,
      "1902": 2008,
      "published": 2009,
      "##ського": 2010,
      "##ido": 2011,
      "word": 2012,
      "96": 2013,
      "##ства": 2014,
      "1890": 2015,
      "61": 2016,
      "67": 2017,
      "Chicago": 2018,
      "mar": 2019,
      "81": 2020,
      "served": 2021,
      "98": 2022,
      "97": 2023,
      "point": 2024,
      "##ros": 2025,
      "Santiago": 2026,
      "mort": 2027,
      "List": 2028,
      "Championship": 2029,
      "Jack": 2030,
      "Bureau": 2031,
      "##ino": 2032,
      "##mann": 2033,
      "##cu": 2034,
      "##ою": 2035,
      "##dy": 2036,
      "match": 2037,
      "Awards": 2038,
      "Roman": 2039,
      "Day": 2040,
      "mu": 2041,
      "include": 2042,
      "top": 2043,
      "700": 2044,
      "##ü": 2045,
      "68": 2046,
      "##mer": 2047,
      "because": 2048,
      "etc": 2049,
      "Juni": 2050,
      "pri": 2051,
      "##ат": 2052,
      "within": 2053,
      "Real": 2054,
      "##ms": 2055,
      "му": 2056,
      "##ito": 2057,
      "##ном": 2058,
      "Son": 2059,
      "##H": 2060,
      "central": 2061,
      "##inen": 2062,
      "Por": 2063,
      "along": 2064,
      "five": 2065,
      "Sa": 2066,
      "83": 2067,
      "того": 2068,
      "record": 2069,
      "##jen": 2070,
      "said": 2071,
      "Internet": 2072,
      "##ego": 2073,
      "Albert": 2074,
      "Culture": 2075,
      "Marine": 2076,
      "76": 2077,
      "radio": 2078,
      "том": 2079,
      "andre": 2080,
      "##ate": 2081,
      "##ima": 2082,
      "##ских": 2083,
      "six": 2084,
      "ва": 2085,
      "important": 2086,
      "##ium": 2087,
      "##ens": 2088,
      "92": 2089,
      "director": 2090,
      "PDF": 2091,
      "members": 2092,
      "Texas": 2093,
      "last": 2094,
      "##ого": 2095,
      "million": 2096,
      "small": 2097,
      "Album": 2098,
      "##ari": 2099,
      "Young": 2100,
      "93": 2101,
      "Big": 2102,
      "died": 2103,
      "program": 2104,
      "football": 2105,
      "What": 2106,
      "1898": 2107,
      "78": 2108,
      "Williams": 2109,
      "##kt": 2110,
      "Football": 2111,
      "два": 2112,
      "бассейны": 2113,
      "best": 2114,
      "Walter": 2115,
      "##ono": 2116,
      "71": 2117,
      "Este": 2118,
      "bila": 2119,
      "media": 2120,
      "91": 2121,
      "##aan": 2122,
      "##wy": 2123,
      "77": 2124,
      "##б": 2125,
      "Party": 2126,
      "international": 2127,
      "74": 2128,
      "##lis": 2129,
      "##leri": 2130,
      "jo": 2131,
      "own": 2132,
      "Indian": 2133,
      "73": 2134,
      "Vol": 2135,
      "##zy": 2136,
      "1897": 2137,
      "During": 2138,
      "1896": 2139,
      "##rat": 2140,
      "##lig": 2141,
      "vo": 2142,
      "death": 2143,
      "very": 2144,
      "##ции": 2145,
      "час": 2146,
      "##ver": 2147,
      "DVD": 2148,
      "air": 2149,
      "1899": 2150,
      "##gt": 2151,
      "69": 2152,
      "vers": 2153,
      "##we": 2154,
      "Academy": 2155,
      "##ем": 2156,
      "87": 2157,
      "##nja": 2158,
      "building": 2159,
      "##sten": 2160,
      "##ах": 2161,
      "##gu": 2162,
      "satu": 2163,
      "Great": 2164,
      "ela": 2165,
      "Under": 2166,
      "Sant": 2167,
      "##nis": 2168,
      "1895": 2169,
      "popular": 2170,
      "##лі": 2171,
      "Lac": 2172,
      "lang": 2173,
      "id": 2174,
      "mis": 2175,
      "control": 2176,
      "Of": 2177,
      "With": 2178,
      "над": 2179,
      "##č": 2180,
      "##ld": 2181,
      "##ное": 2182,
      "Brown": 2183,
      "Во": 2184,
      "аса": 2185,
      "third": 2186,
      "##let": 2187,
      "##ques": 2188,
      "па": 2189,
      "ele": 2190,
      "services": 2191,
      "89": 2192,
      "Nam": 2193,
      "Werner": 2194,
      "still": 2195,
      "Road": 2196,
      "##rum": 2197,
      "mei": 2198,
      "си": 2199,
      "Bei": 2200,
      "како": 2201,
      "##ге": 2202,
      "Wilhelm": 2203,
      "centre": 2204,
      "##ите": 2205,
      "##X": 2206,
      "##pi": 2207,
      "those": 2208,
      "##ara": 2209,
      "col": 2210,
      "##od": 2211,
      "##ys": 2212,
      "##tti": 2213,
      "Top": 2214,
      "##ие": 2215,
      "fou": 2216,
      "And": 2217,
      "Church": 2218,
      "её": 2219,
      "children": 2220,
      "Mit": 2221,
      "Night": 2222,
      "##ite": 2223,
      "##pen": 2224,
      "про": 2225,
      "##ј": 2226,
      "##per": 2227,
      "vol": 2228,
      "##ez": 2229,
      "By": 2230,
      "##og": 2231,
      "ter": 2232,
      "##ную": 2233,
      "##ato": 2234,
      "1889": 2235,
      "country": 2236,
      "1880": 2237,
      "##nak": 2238,
      "ia": 2239,
      "##use": 2240,
      "або": 2241,
      "##сть": 2242,
      "Version": 2243,
      "##ele": 2244,
      "included": 2245,
      "##ал": 2246,
      "Jacques": 2247,
      "mayor": 2248,
      "book": 2249,
      "94": 2250,
      "##ня": 2251,
      "##nti": 2252,
      "##ди": 2253,
      "##ser": 2254,
      "north": 2255,
      "Army": 2256,
      "lat": 2257,
      "##ster": 2258,
      "##ар": 2259,
      "України": 2260,
      "##ue": 2261,
      "лет": 2262,
      "Germany": 2263,
      "США": 2264,
      "##sia": 2265,
      "eds": 2266,
      "була": 2267,
      "Asia": 2268,
      "##ras": 2269,
      "##ret": 2270,
      "Super": 2271,
      "causa": 2272,
      "points": 2273,
      "79": 2274,
      "wo": 2275,
      "ano": 2276,
      "через": 2277,
      "1870": 2278,
      "Grande": 2279,
      "##ту": 2280,
      "##ova": 2281,
      "##sko": 2282,
      "##chi": 2283,
      "type": 2284,
      "##ile": 2285,
      "President": 2286,
      "Scott": 2287,
      "tai": 2288,
      "Luis": 2289,
      "##sse": 2290,
      "##tar": 2291,
      "just": 2292,
      "Council": 2293,
      "##ane": 2294,
      "##ija": 2295,
      "Social": 2296,
      "Australian": 2297,
      "нь": 2298,
      "##iva": 2299,
      "После": 2300,
      "Prix": 2301,
      "Centre": 2302,
      "tour": 2303,
      "##ş": 2304,
      "ces": 2305,
      "Con": 2306,
      "као": 2307,
      "Pedro": 2308,
      "Sir": 2309,
      "Argentina": 2310,
      "Max": 2311,
      "led": 2312,
      "##ых": 2313,
      "another": 2314,
      "We": 2315,
      "##bar": 2316,
      "##ена": 2317,
      "##ye": 2318,
      "piano": 2319,
      "Africa": 2320,
      "So": 2321,
      "near": 2322,
      "title": 2323,
      "see": 2324,
      "##su": 2325,
      "##ць": 2326,
      "1886": 2327,
      "old": 2328,
      "often": 2329,
      "Iran": 2330,
      "different": 2331,
      "##нда": 2332,
      "##rie": 2333,
      "Windows": 2334,
      "1885": 2335,
      "##kom": 2336,
      "##sel": 2337,
      "Harry": 2338,
      "Mr": 2339,
      "Verlag": 2340,
      "##ona": 2341,
      "##mas": 2342,
      "dar": 2343,
      "1894": 2344,
      "##one": 2345,
      "player": 2346,
      "information": 2347,
      "##ade": 2348,
      "president": 2349,
      "Department": 2350,
      "##ський": 2351,
      "down": 2352,
      "Little": 2353,
      "Arts": 2354,
      "Portugal": 2355,
      "##ция": 2356,
      "Di": 2357,
      "nas": 2358,
      "Power": 2359,
      "##line": 2360,
      "##van": 2361,
      "position": 2362,
      "Research": 2363,
      "1893": 2364,
      "##ft": 2365,
      "live": 2366,
      "Meyer": 2367,
      "##cha": 2368,
      "Jr": 2369,
      "1892": 2370,
      "который": 2371,
      "##dd": 2372,
      "groupe": 2373,
      "role": 2374,
      "Blue": 2375,
      "what": 2376,
      "има": 2377,
      "##net": 2378,
      "Sciences": 2379,
      "1891": 2380,
      "##ais": 2381,
      "##eur": 2382,
      "VII": 2383,
      "order": 2384,
      "Israel": 2385,
      "##цы": 2386,
      "##aren": 2387,
      "web": 2388,
      "это": 2389,
      "car": 2390,
      "late": 2391,
      "##ey": 2392,
      "hoa": 2393,
      "##ira": 2394,
      "##их": 2395,
      "bet": 2396,
      "described": 2397,
      "Deutschland": 2398,
      "без": 2399,
      "##uk": 2400,
      "##lin": 2401,
      "career": 2402,
      "grand": 2403,
      "##ore": 2404,
      "Men": 2405,
      "you": 2406,
      "Dans": 2407,
      "климат": 2408,
      "##ena": 2409,
      "##W": 2410,
      "##ча": 2411,
      "##ков": 2412,
      "Global": 2413,
      "##ise": 2414,
      "##vu": 2415,
      "##est": 2416,
      "1888": 2417,
      "tu": 2418,
      "110": 2419,
      "XVIII": 2420,
      "moved": 2421,
      "##ika": 2422,
      "##rn": 2423,
      "Joe": 2424,
      "plan": 2425,
      "Green": 2426,
      "Lo": 2427,
      "Adam": 2428,
      "Good": 2429,
      "може": 2430,
      "fel": 2431,
      "##zu": 2432,
      "hai": 2433,
      "##ят": 2434,
      "були": 2435,
      "Wilson": 2436,
      "make": 2437,
      "XVI": 2438,
      "##uri": 2439,
      "studio": 2440,
      "##able": 2441,
      "##ор": 2442,
      "Co": 2443,
      "Creek": 2444,
      "более": 2445,
      "Manuel": 2446,
      "##sis": 2447,
      "##се": 2448,
      "monde": 2449,
      "ez": 2450,
      "Ed": 2451,
      "again": 2452,
      "Nova": 2453,
      "##ним": 2454,
      "period": 2455,
      "##vel": 2456,
      "##een": 2457,
      "##ali": 2458,
      "Arthur": 2459,
      "##ring": 2460,
      "##ves": 2461,
      "##ина": 2462,
      "south": 2463,
      "support": 2464,
      "Bay": 2465,
      "##ses": 2466,
      "Chris": 2467,
      "##ges": 2468,
      "##ам": 2469,
      "Bill": 2470,
      "Western": 2471,
      "але": 2472,
      "##ard": 2473,
      "Jackson": 2474,
      "way": 2475,
      "much": 2476,
      "ho": 2477,
      "##ente": 2478,
      "Song": 2479,
      "человек": 2480,
      "power": 2481,
      "##ih": 2482,
      "women": 2483,
      "model": 2484,
      "father": 2485,
      "musical": 2486,
      "##ham": 2487,
      "##ende": 2488,
      "##tra": 2489,
      "Au": 2490,
      "Serie": 2491,
      "similar": 2492,
      "Two": 2493,
      "house": 2494,
      "Law": 2495,
      "##lia": 2496,
      "Chile": 2497,
      "##ps": 2498,
      "html": 2499,
      "##лар": 2500,
      "##eri": 2501,
      "Her": 2502,
      "##ès": 2503,
      "между": 2504,
      "1878": 2505,
      "##ша": 2506,
      "##rea": 2507,
      "Series": 2508,
      "Mae": 2509,
      "Johnson": 2510,
      "Names": 2511,
      "established": 2512,
      "even": 2513,
      "об": 2514,
      "1883": 2515,
      "maj": 2516,
      "три": 2517,
      "These": 2518,
      "law": 2519,
      "##лы": 2520,
      "Li": 2521,
      "##ati": 2522,
      "article": 2523,
      "##sh": 2524,
      "##ds": 2525,
      "Mike": 2526,
      "Platz": 2527,
      "Gran": 2528,
      "Michel": 2529,
      "##ix": 2530,
      "##tic": 2531,
      "level": 2532,
      "1887": 2533,
      "Thompson": 2534,
      "##ев": 2535,
      "##nom": 2536,
      "face": 2537,
      "Giovanni": 2538,
      "Chinese": 2539,
      "München": 2540,
      "far": 2541,
      "Ben": 2542,
      "Register": 2543,
      "Long": 2544,
      "Steve": 2545,
      "##ami": 2546,
      "##ula": 2547,
      "suite": 2548,
      "##ide": 2549,
      "##це": 2550,
      "##tos": 2551,
      "##ee": 2552,
      "##ala": 2553,
      "место": 2554,
      "Philip": 2555,
      "##ры": 2556,
      "##ons": 2557,
      "им": 2558,
      "among": 2559,
      "hier": 2560,
      "##cs": 2561,
      "games": 2562,
      "opera": 2563,
      "1860": 2564,
      "cap": 2565,
      "Ce": 2566,
      "Media": 2567,
      "Dit": 2568,
      "Office": 2569,
      "##met": 2570,
      "style": 2571,
      "Sud": 2572,
      "community": 2573,
      "##het": 2574,
      "##ната": 2575,
      "Paulo": 2576,
      "##op": 2577,
      "##tik": 2578,
      "1884": 2579,
      "##ът": 2580,
      "##fa": 2581,
      "##nza": 2582,
      "##via": 2583,
      "Heinrich": 2584,
      "full": 2585,
      "##yn": 2586,
      "using": 2587,
      "came": 2588,
      "Force": 2589,
      "##mos": 2590,
      "##ford": 2591,
      "130": 2592,
      "##ба": 2593,
      "##ше": 2594,
      "##ком": 2595,
      "##cher": 2596,
      "##ism": 2597,
      "written": 2598,
      "Taylor": 2599,
      "kot": 2600,
      "##issa": 2601,
      "development": 2602,
      "##ç": 2603,
      "construction": 2604,
      "##field": 2605,
      "natural": 2606,
      "sai": 2607,
      "является": 2608,
      "list": 2609,
      "php": 2610,
      "##ss": 2611,
      "1848": 2612,
      "debut": 2613,
      "1882": 2614,
      "1881": 2615,
      "produced": 2616,
      "##tis": 2617,
      "fine": 2618,
      "##ici": 2619,
      "Lord": 2620,
      "went": 2621,
      "right": 2622,
      "Show": 2623,
      "next": 2624,
      "аз": 2625,
      "lub": 2626,
      "modern": 2627,
      "started": 2628,
      "##ил": 2629,
      "become": 2630,
      "стал": 2631,
      "Russian": 2632,
      "times": 2633,
      "Columbia": 2634,
      "##nan": 2635,
      "##rna": 2636,
      "case": 2637,
      "##eg": 2638,
      "##им": 2639,
      "##urs": 2640,
      "##ым": 2641,
      "Russell": 2642,
      "ru": 2643,
      "min": 2644,
      "##tat": 2645,
      "real": 2646,
      "против": 2647,
      "Service": 2648,
      "Anne": 2649,
      "Are": 2650,
      "Para": 2651,
      "##ous": 2652,
      "students": 2653,
      "##ell": 2654,
      "През": 2655,
      "given": 2656,
      "Une": 2657,
      "1st": 2658,
      "1871": 2659,
      "Roger": 2660,
      "реестры": 2661,
      "Ali": 2662,
      "##ел": 2663,
      "##po": 2664,
      "Billboard": 2665,
      "##ши": 2666,
      "married": 2667,
      "##mus": 2668,
      "UEFA": 2669,
      "uz": 2670,
      "##rer": 2671,
      "Bank": 2672,
      "Women": 2673,
      "##nn": 2674,
      "Kim": 2675,
      "material": 2676,
      "##ние": 2677,
      "900": 2678,
      "##mes": 2679,
      "various": 2680,
      "января": 2681,
      "average": 2682,
      "Your": 2683,
      "fire": 2684,
      "##ingen": 2685,
      "##ию": 2686,
      "##ese": 2687,
      "##ско": 2688,
      "Year": 2689,
      "шп": 2690,
      "round": 2691,
      "ба": 2692,
      "Otto": 2693,
      "take": 2694,
      "website": 2695,
      "head": 2696,
      "##bra": 2697,
      "##ф": 2698,
      "Bob": 2699,
      "##cio": 2700,
      "gov": 2701,
      "##за": 2702,
      "let": 2703,
      "class": 2704,
      "##ht": 2705,
      "##ral": 2706,
      "Inc": 2707,
      "1861": 2708,
      "Henri": 2709,
      "те": 2710,
      "них": 2711,
      "story": 2712,
      "Мексику": 2713,
      "ac": 2714,
      "1864": 2715,
      "Malaysia": 2716,
      "1857": 2717,
      "1879": 2718,
      "Virginia": 2719,
      "време": 2720,
      "##tica": 2721,
      "##yi": 2722,
      "Empire": 2723,
      "Entre": 2724,
      "That": 2725,
      "##би": 2726,
      "1800": 2727,
      "##ket": 2728,
      "plu": 2729,
      "##eren": 2730,
      "1876": 2731,
      "Up": 2732,
      "fer": 2733,
      "Wien": 2734,
      "##llo": 2735,
      "Victoria": 2736,
      "without": 2737,
      "date": 2738,
      "Esta": 2739,
      "мен": 2740,
      "Florida": 2741,
      "yo": 2742,
      "having": 2743,
      "Reference": 2744,
      "Republic": 2745,
      "Boston": 2746,
      "design": 2747,
      "election": 2748,
      "все": 2749,
      "sia": 2750,
      "Special": 2751,
      "##tz": 2752,
      "mer": 2753,
      "##си": 2754,
      "состав": 2755,
      "language": 2756,
      "Queen": 2757,
      "FIFA": 2758,
      "store": 2759,
      "VIII": 2760,
      "##iem": 2761,
      "один": 2762,
      "##ют": 2763,
      "Program": 2764,
      "short": 2765,
      "pop": 2766,
      "term": 2767,
      "только": 2768,
      "##hu": 2769,
      "##bre": 2770,
      "forces": 2771,
      "Alfred": 2772,
      "##rte": 2773,
      "west": 2774,
      "political": 2775,
      "download": 2776,
      "Francis": 2777,
      "##ero": 2778,
      "Ha": 2779,
      "##igen": 2780,
      "Ma": 2781,
      "created": 2782,
      "Francesco": 2783,
      "##ement": 2784,
      "Tony": 2785,
      "division": 2786,
      "Franz": 2787,
      "около": 2788,
      "Unis": 2789,
      "##gang": 2790,
      "Lewis": 2791,
      "##bus": 2792,
      "##bel": 2793,
      "Old": 2794,
      "cc": 2795,
      "1877": 2796,
      "##rin": 2797,
      "##тар": 2798,
      "##ili": 2799,
      "ft": 2800,
      "##los": 2801,
      "1873": 2802,
      "1863": 2803,
      "##ви": 2804,
      "1810": 2805,
      "metal": 2806,
      "Je": 2807,
      "1875": 2808,
      "nr": 2809,
      "##ila": 2810,
      "however": 2811,
      "Book": 2812,
      "города": 2813,
      "##ging": 2814,
      "Des": 2815,
      "Commons": 2816,
      "1865": 2817,
      "Natural": 2818,
      "##ff": 2819,
      "1867": 2820,
      "few": 2821,
      "##ля": 2822,
      "east": 2823,
      "Digital": 2824,
      "African": 2825,
      "Sky": 2826,
      "века": 2827,
      "##vis": 2828,
      "##ram": 2829,
      "Japanese": 2830,
      "160": 2831,
      "pays": 2832,
      "##dia": 2833,
      "professor": 2834,
      "announced": 2835,
      "worked": 2836,
      "##rar": 2837,
      "1868": 2838,
      "##ните": 2839,
      "##ede": 2840,
      "##ый": 2841,
      "Stephen": 2842,
      "Patrick": 2843,
      "sei": 2844,
      "Ray": 2845,
      "ima": 2846,
      "##че": 2847,
      "Villa": 2848,
      "half": 2849,
      "войны": 2850,
      "1850": 2851,
      "##iv": 2852,
      "Some": 2853,
      "Google": 2854,
      "##ong": 2855,
      "XIII": 2856,
      "online": 2857,
      "Robinson": 2858,
      "Home": 2859,
      "Costa": 2860,
      "##iti": 2861,
      "##ando": 2862,
      "Miguel": 2863,
      "dy": 2864,
      "Johannes": 2865,
      "180": 2866,
      "joined": 2867,
      "##jas": 2868,
      "##if": 2869,
      "Region": 2870,
      "project": 2871,
      "1500": 2872,
      "##rus": 2873,
      "See": 2874,
      "economic": 2875,
      "structure": 2876,
      "Romania": 2877,
      "Buenos": 2878,
      "route": 2879,
      "eo": 2880,
      "ass": 2881,
      "Nature": 2882,
      "field": 2883,
      "1866": 2884,
      "1872": 2885,
      "SS": 2886,
      "XVII": 2887,
      "1859": 2888,
      "theo": 2889,
      "vita": 2890,
      "vir": 2891,
      "wrote": 2892,
      "vi": 2893,
      "140": 2894,
      "Ia": 2895,
      "Aires": 2896,
      "free": 2897,
      "Airport": 2898,
      "##Z": 2899,
      "Sun": 2900,
      "Act": 2901,
      "##ding": 2902,
      "updated": 2903,
      "она": 2904,
      "Brian": 2905,
      "1869": 2906,
      "##ern": 2907,
      "##heim": 2908,
      "него": 2909,
      "##las": 2910,
      "##ett": 2911,
      "sub": 2912,
      "1862": 2913,
      "days": 2914,
      "##jon": 2915,
      "Georg": 2916,
      "##ña": 2917,
      "##nas": 2918,
      "Wikipedia": 2919,
      "##ay": 2920,
      "Andrew": 2921,
      "##elle": 2922,
      "Books": 2923,
      "Lady": 2924,
      "works": 2925,
      "##ness": 2926,
      "Mario": 2927,
      "actual": 2928,
      "##ani": 2929,
      "God": 2930,
      "Amsterdam": 2931,
      "Pro": 2932,
      "Fernando": 2933,
      "Canadian": 2934,
      "Studies": 2935,
      "race": 2936,
      "Bad": 2937,
      "которые": 2938,
      "returned": 2939,
      "1874": 2940,
      "Oscar": 2941,
      "bol": 2942,
      "party": 2943,
      "military": 2944,
      "status": 2945,
      "fi": 2946,
      "125": 2947,
      "XIV": 2948,
      "professional": 2949,
      "Online": 2950,
      "Eric": 2951,
      "##ella": 2952,
      "Game": 2953,
      "month": 2954,
      "kde": 2955,
      "actor": 2956,
      "##tre": 2957,
      "##ника": 2958,
      "release": 2959,
      "##nts": 2960,
      "Za": 2961,
      "##lus": 2962,
      "Institut": 2963,
      "founded": 2964,
      "##tive": 2965,
      "Guide": 2966,
      "open": 2967,
      "##lli": 2968,
      "Fue": 2969,
      "Hot": 2970,
      "Publishing": 2971,
      "run": 2972,
      "Korea": 2973,
      "XII": 2974,
      "XV": 2975,
      "Court": 2976,
      "##nus": 2977,
      "2nd": 2978,
      "lead": 2979,
      "research": 2980,
      "Dictionary": 2981,
      "EP": 2982,
      "Ludwig": 2983,
      "##uta": 2984,
      "мая": 2985,
      "https": 2986,
      "##ги": 2987,
      "101": 2988,
      "win": 2989,
      "possible": 2990,
      "faire": 2991,
      "##way": 2992,
      "##ться": 2993,
      "##nica": 2994,
      "##bach": 2995,
      "color": 2996,
      "Wales": 2997,
      "Oslo": 2998,
      "##vas": 2999,
      "Point": 3000,
      "Library": 3001,
      "miles": 3002,
      "##ве": 3003,
      "homes": 3004,
      "business": 3005,
      "According": 3006,
      "Mission": 3007,
      "Marco": 3008,
      "civil": 3009,
      "television": 3010,
      "августа": 3011,
      "hem": 3012,
      "inte": 3013,
      "Elizabeth": 3014,
      "lost": 3015,
      "Victor": 3016,
      "Jim": 3017,
      "human": 3018,
      "Second": 3019,
      "Auf": 3020,
      "Prince": 3021,
      "Entertainment": 3022,
      "##tal": 3023,
      "##ae": 3024,
      "##ties": 3025,
      "Como": 3026,
      "church": 3027,
      "action": 3028,
      "##her": 3029,
      "##чи": 3030,
      "##zer": 3031,
      "##una": 3032,
      "##iro": 3033,
      "рус": 3034,
      "##xa": 3035,
      "tant": 3036,
      "recorded": 3037,
      "together": 3038,
      "every": 3039,
      "People": 3040,
      "##tro": 3041,
      "rei": 3042,
      "Set": 3043,
      "Miss": 3044,
      "Ta": 3045,
      "anti": 3046,
      "##illa": 3047,
      "elected": 3048,
      "Ford": 3049,
      "района": 3050,
      "##owe": 3051,
      "Dan": 3052,
      "Century": 3053,
      "Sam": 3054,
      "##osa": 3055,
      "##bles": 3056,
      "они": 3057,
      "##ген": 3058,
      "continued": 3059,
      "films": 3060,
      "Davis": 3061,
      "dio": 3062,
      "Mount": 3063,
      "considered": 3064,
      "Wolfgang": 3065,
      "making": 3066,
      "Station": 3067,
      "Project": 3068,
      "office": 3069,
      "ok": 3070,
      "##скан": 3071,
      "Alan": 3072,
      "track": 3073,
      "##ро": 3074,
      "moment": 3075,
      "##ется": 3076,
      "Claude": 3077,
      "##cus": 3078,
      "episode": 3079,
      "Be": 3080,
      "chi": 3081,
      "Fort": 3082,
      "Carolina": 3083,
      "body": 3084,
      "##ori": 3085,
      "При": 3086,
      "IX": 3087,
      "province": 3088,
      "##bia": 3089,
      "той": 3090,
      "##ре": 3091,
      "##ными": 3092,
      "example": 3093,
      "Nr": 3094,
      "##ские": 3095,
      "Minister": 3096,
      "Line": 3097,
      "##ру": 3098,
      "Most": 3099,
      "##isk": 3100,
      "Gold": 3101,
      "##rne": 3102,
      "policy": 3103,
      "edition": 3104,
      "##jan": 3105,
      "opened": 3106,
      "ere": 3107,
      "syn": 3108,
      "Town": 3109,
      "ti": 3110,
      "##hin": 3111,
      "wife": 3112,
      "##nos": 3113,
      "Professor": 3114,
      "Valley": 3115,
      "##š": 3116,
      "##wan": 3117,
      "##кой": 3118,
      "Model": 3119,
      "kas": 3120,
      "##ich": 3121,
      "##мен": 3122,
      "##fi": 3123,
      "teams": 3124,
      "##ман": 3125,
      "##ик": 3126,
      "##ins": 3127,
      "##gar": 3128,
      "event": 3129,
      "До": 3130,
      "Российской": 3131,
      "##ille": 3132,
      "news": 3133,
      "##lige": 3134,
      "Golden": 3135,
      "этого": 3136,
      "##ске": 3137,
      "performance": 3138,
      "##lse": 3139,
      "##san": 3140,
      "Cruz": 3141,
      "Carlo": 3142,
      "prema": 3143,
      "Go": 3144,
      "мм": 3145,
      "eu": 3146,
      "##ful": 3147,
      "DC": 3148,
      "Jersey": 3149,
      "geographical": 3150,
      "Bernard": 3151,
      "Zealand": 3152,
      "Sur": 3153,
      "Corporation": 3154,
      "##feld": 3155,
      "##ін": 3156,
      "active": 3157,
      "bug": 3158,
      "##haus": 3159,
      "##ntes": 3160,
      "Stone": 3161,
      "Sydney": 3162,
      "Susan": 3163,
      "special": 3164,
      "Austria": 3165,
      "Committee": 3166,
      "##uar": 3167,
      "био": 3168,
      "##set": 3169,
      "Other": 3170,
      "марта": 3171,
      "Federal": 3172,
      "result": 3173,
      "##del": 3174,
      "##bb": 3175,
      "##lio": 3176,
      "put": 3177,
      "Games": 3178,
      "Development": 3179,
      "Out": 3180,
      "##kel": 3181,
      "Princeton": 3182,
      "Who": 3183,
      "qua": 3184,
      "Um": 3185,
      "105": 3186,
      "##ag": 3187,
      "Roy": 3188,
      "Girl": 3189,
      "##ович": 3190,
      "##ct": 3191,
      "Климат": 3192,
      "##kou": 3193,
      "1830": 3194,
      "If": 3195,
      "Post": 3196,
      "sent": 3197,
      "##ments": 3198,
      "areas": 3199,
      "этом": 3200,
      "##isi": 3201,
      "##dal": 3202,
      "части": 3203,
      "Foundation": 3204,
      "Ernst": 3205,
      "Eesti": 3206,
      "Sin": 3207,
      "appeared": 3208,
      "реки": 3209,
      "##nog": 3210,
      "Space": 3211,
      "##ose": 3212,
      "##йн": 3213,
      "Kong": 3214,
      "##ые": 3215,
      "available": 3216,
      "Government": 3217,
      "##nar": 3218,
      "##ces": 3219,
      "further": 3220,
      "lag": 3221,
      "front": 3222,
      "##up": 3223,
      "private": 3224,
      "Rome": 3225,
      "села": 3226,
      "Pacific": 3227,
      "##ait": 3228,
      "While": 3229,
      "##fe": 3230,
      "stand": 3231,
      "менен": 3232,
      "Stockholm": 3233,
      "san": 3234,
      "growth": 3235,
      "##ую": 3236,
      "Master": 3237,
      "##она": 3238,
      "Miller": 3239,
      "working": 3240,
      "Latin": 3241,
      "Кеп": 3242,
      "##ана": 3243,
      "common": 3244,
      "living": 3245,
      "XI": 3246,
      "developed": 3247,
      "formed": 3248,
      "others": 3249,
      "Web": 3250,
      "Ireland": 3251,
      "##oi": 3252,
      "##oni": 3253,
      "##ante": 3254,
      "Hollywood": 3255,
      "##gas": 3256,
      "Public": 3257,
      "Kingdom": 3258,
      "##sson": 3259,
      "##ean": 3260,
      "##ая": 3261,
      "Story": 3262,
      "lu": 3263,
      "район": 3264,
      "Spanish": 3265,
      "##ння": 3266,
      "Russia": 3267,
      "Diego": 3268,
      "embargo": 3269,
      "census": 3270,
      "novel": 3271,
      "##ское": 3272,
      "##mar": 3273,
      "##сті": 3274,
      "Bruce": 3275,
      "study": 3276,
      "##ме": 3277,
      "била": 3278,
      "Review": 3279,
      "Он": 3280,
      "1840": 3281,
      "##Y": 3282,
      "ки": 3283,
      "декабря": 3284,
      "##pus": 3285,
      "Order": 3286,
      "eng": 3287,
      "Premier": 3288,
      "##rono": 3289,
      "entry": 3290,
      "Va": 3291,
      "##eta": 3292,
      "Pennsylvania": 3293,
      "Islam": 3294,
      "Alex": 3295,
      "science": 3296,
      "official": 3297,
      "##nta": 3298,
      "Port": 3299,
      "##kat": 3300,
      "##К": 3301,
      "град": 3302,
      "young": 3303,
      "Sea": 3304,
      "Board": 3305,
      "Budapest": 3306,
      "бар": 3307,
      "Anthony": 3308,
      "##and": 3309,
      "kad": 3310,
      "##ggio": 3311,
      "##чно": 3312,
      "##wood": 3313,
      "##ения": 3314,
      "addition": 3315,
      "himself": 3316,
      "##ete": 3317,
      "##zia": 3318,
      "Part": 3319,
      "great": 3320,
      "signed": 3321,
      "although": 3322,
      "Navy": 3323,
      "##ено": 3324,
      "июля": 3325,
      "##oa": 3326,
      "Network": 3327,
      "Movie": 3328,
      "##hen": 3329,
      "##С": 3330,
      "never": 3331,
      "how": 3332,
      "##ська": 3333,
      "Regional": 3334,
      "бил": 3335,
      "interior": 3336,
      "tras": 3337,
      "Battle": 3338,
      "Last": 3339,
      "##ган": 3340,
      "Milano": 3341,
      "че": 3342,
      "cultural": 3343,
      "102": 3344,
      "should": 3345,
      "Can": 3346,
      "Samuel": 3347,
      "Family": 3348,
      "##isen": 3349,
      "##ette": 3350,
      "Ort": 3351,
      "само": 3352,
      "lett": 3353,
      "##fer": 3354,
      "NBA": 3355,
      "##tie": 3356,
      "Douglas": 3357,
      "neu": 3358,
      "Its": 3359,
      "##ivo": 3360,
      "court": 3361,
      "Rose": 3362,
      "##ao": 3363,
      "map": 3364,
      "1858": 3365,
      "playing": 3366,
      "Fox": 3367,
      "составе": 3368,
      "Main": 3369,
      "disco": 3370,
      "Non": 3371,
      "##dt": 3372,
      "section": 3373,
      "##зи": 3374,
      "appointed": 3375,
      "##nou": 3376,
      "Gordon": 3377,
      "park": 3378,
      "##ö": 3379,
      "collection": 3380,
      "##werk": 3381,
      "Civil": 3382,
      "once": 3383,
      "##get": 3384,
      "Disney": 3385,
      "Monte": 3386,
      "ant": 3387,
      "tam": 3388,
      "две": 3389,
      "Illinois": 3390,
      "hon": 3391,
      "Final": 3392,
      "Du": 3393,
      "##ary": 3394,
      "personal": 3395,
      "sea": 3396,
      "idea": 3397,
      "municipal": 3398,
      "Республики": 3399,
      "Commission": 3400,
      "away": 3401,
      "education": 3402,
      "##ora": 3403,
      "hit": 3404,
      "Roberto": 3405,
      "##ych": 3406,
      "##dra": 3407,
      "Georges": 3408,
      "Santo": 3409,
      "##lag": 3410,
      "##min": 3411,
      "Summer": 3412,
      "##ск": 3413,
      "##ера": 3414,
      "How": 3415,
      "Country": 3416,
      "годах": 3417,
      "##pt": 3418,
      "##жи": 3419,
      "##ків": 3420,
      "current": 3421,
      "standard": 3422,
      "июня": 3423,
      "must": 3424,
      "##less": 3425,
      "vs": 3426,
      "Major": 3427,
      "cas": 3428,
      "##iya": 3429,
      "350": 3430,
      "Video": 3431,
      "##чки": 3432,
      "##my": 3433,
      "nich": 3434,
      "##zza": 3435,
      "Trade": 3436,
      "Anderson": 3437,
      "##ans": 3438,
      "Norte": 3439,
      "leader": 3440,
      "particular": 3441,
      "##ör": 3442,
      "Hamburg": 3443,
      "Microsoft": 3444,
      "##cos": 3445,
      "##tions": 3446,
      "##vet": 3447,
      "сентября": 3448,
      "force": 3449,
      "mil": 3450,
      "police": 3451,
      "октября": 3452,
      "fast": 3453,
      "person": 3454,
      "black": 3455,
      "Integrated": 3456,
      "pot": 3457,
      "1856": 3458,
      "ред": 3459,
      "##тан": 3460,
      "Sport": 3461,
      "Education": 3462,
      "##owa": 3463,
      "##ени": 3464,
      "1854": 3465,
      "Report": 3466,
      "classification": 3467,
      "Casa": 3468,
      "kilometers": 3469,
      "Hong": 3470,
      "return": 3471,
      "##don": 3472,
      "diverse": 3473,
      "Howard": 3474,
      "##nto": 3475,
      "character": 3476,
      "Heart": 3477,
      "File": 3478,
      "Allen": 3479,
      "though": 3480,
      "##zh": 3481,
      "Like": 3482,
      "does": 3483,
      "##ela": 3484,
      "taken": 3485,
      "Plant": 3486,
      "свою": 3487,
      "104": 3488,
      "##чка": 3489,
      "##па": 3490,
      "##pan": 3491,
      "Southern": 3492,
      "aver": 3493,
      "Massachusetts": 3494,
      "my": 3495,
      "ham": 3496,
      "Ltd": 3497,
      "across": 3498,
      "Mountain": 3499,
      "process": 3500,
      "Three": 3501,
      "##tto": 3502,
      "Nations": 3503,
      "start": 3504,
      "##ama": 3505,
      "1849": 3506,
      "opp": 3507,
      "##ola": 3508,
      "Theatre": 3509,
      "culture": 3510,
      "square": 3511,
      "hy": 3512,
      "##ast": 3513,
      "##det": 3514,
      "books": 3515,
      "tan": 3516,
      "stor": 3517,
      "##ava": 3518,
      "sine": 3519,
      "##tek": 3520,
      "##lari": 3521,
      "##iste": 3522,
      "mal": 3523,
      "##kar": 3524,
      "##ota": 3525,
      "##дан": 3526,
      "good": 3527,
      "Joan": 3528,
      "tid": 3529,
      "inn": 3530,
      "##cion": 3531,
      "Planet": 3532,
      "sang": 3533,
      "Anh": 3534,
      "Village": 3535,
      "help": 3536,
      "Colombia": 3537,
      "1855": 3538,
      "Frankfurt": 3539,
      "guitar": 3540,
      "dies": 3541,
      "hand": 3542,
      "Georgia": 3543,
      "##ика": 3544,
      "Volume": 3545,
      "##mis": 3546,
      "##rsi": 3547,
      "festival": 3548,
      "daughter": 3549,
      "Christopher": 3550,
      "zone": 3551,
      "source": 3552,
      "апреля": 3553,
      "genre": 3554,
      "Marc": 3555,
      "округу": 3556,
      "Toronto": 3557,
      "motor": 3558,
      "##iden": 3559,
      "white": 3560,
      "##нь": 3561,
      "Catherine": 3562,
      "##º": 3563,
      "##во": 3564,
      "##лары": 3565,
      "Soviet": 3566,
      "тому": 3567,
      "Business": 3568,
      "performed": 3569,
      "когда": 3570,
      "events": 3571,
      "Greek": 3572,
      "ada": 3573,
      "mother": 3574,
      "##нан": 3575,
      "код": 3576,
      "families": 3577,
      "жер": 3578,
      "minutes": 3579,
      "less": 3580,
      "1852": 3581,
      "Tokyo": 3582,
      "стала": 3583,
      "cause": 3584,
      "currently": 3585,
      "Tim": 3586,
      "Mexican": 3587,
      "мира": 3588,
      "kod": 3589,
      "get": 3590,
      "gen": 3591,
      "Norman": 3592,
      "3000": 3593,
      "terra": 3594,
      "sold": 3595,
      "##sto": 3596,
      "##iga": 3597,
      "##vy": 3598,
      "drama": 3599,
      "course": 3600,
      "Manchester": 3601,
      "фр": 3602,
      "Northern": 3603,
      "##ить": 3604,
      "энциклопедия": 3605,
      "415": 3606,
      "gave": 3607,
      "largest": 3608,
      "##tin": 3609,
      "stage": 3610,
      "##sin": 3611,
      "Magazine": 3612,
      "Moore": 3613,
      "features": 3614,
      "Kevin": 3615,
      "upon": 3616,
      "Will": 3617,
      "Федерации": 3618,
      "Boy": 3619,
      "##ries": 3620,
      "Deutsche": 3621,
      "Harper": 3622,
      "##art": 3623,
      "##ping": 3624,
      "Stanley": 3625,
      "alto": 3626,
      "Minor": 3627,
      "##vos": 3628,
      "Philippe": 3629,
      "170": 3630,
      "Hotel": 3631,
      "##чна": 3632,
      "##gia": 3633,
      "##J": 3634,
      "##stand": 3635,
      "##ших": 3636,
      "фон": 3637,
      "##aria": 3638,
      "Human": 3639,
      "Walker": 3640,
      "includes": 3641,
      "##ott": 3642,
      "Pakistan": 3643,
      "magazine": 3644,
      "Middle": 3645,
      "ani": 3646,
      "directed": 3647,
      "Gabriel": 3648,
      "ноября": 3649,
      "change": 3650,
      "oa": 3651,
      "songs": 3652,
      "FM": 3653,
      "##dar": 3654,
      "##ias": 3655,
      "Death": 3656,
      "##lta": 3657,
      "##тер": 3658,
      "##hus": 3659,
      "Catholic": 3660,
      "Численность": 3661,
      "Hoa": 3662,
      "##vin": 3663,
      "Director": 3664,
      "Universal": 3665,
      "road": 3666,
      "##imo": 3667,
      "sale": 3668,
      "##nne": 3669,
      "sense": 3670,
      "которых": 3671,
      "Finland": 3672,
      "ins": 3673,
      "alt": 3674,
      "Sports": 3675,
      "##its": 3676,
      "quali": 3677,
      "designed": 3678,
      "Gary": 3679,
      "DNA": 3680,
      "##port": 3681,
      "Bell": 3682,
      "##ала": 3683,
      "##asi": 3684,
      "##гу": 3685,
      "##ish": 3686,
      "уже": 3687,
      "m²": 3688,
      "##ста": 3689,
      "Ze": 3690,
      "Small": 3691,
      "1851": 3692,
      "text": 3693,
      "ordre": 3694,
      "##ща": 3695,
      "Jane": 3696,
      "Johnny": 3697,
      "103": 3698,
      "ger": 3699,
      "months": 3700,
      "originally": 3701,
      "issue": 3702,
      "##fen": 3703,
      "Maurice": 3704,
      "##dom": 3705,
      "##house": 3706,
      "##ню": 3707,
      "1853": 3708,
      "sol": 3709,
      "parts": 3710,
      "shows": 3711,
      "##ному": 3712,
      "ensemble": 3713,
      "##wie": 3714,
      "##leg": 3715,
      "7th": 3716,
      "##tore": 3717,
      "##ios": 3718,
      "Москва": 3719,
      "генерал": 3720,
      "Since": 3721,
      "##yo": 3722,
      "Ab": 3723,
      "Est": 3724,
      "других": 3725,
      "direction": 3726,
      "range": 3727,
      "Beach": 3728,
      "mid": 3729,
      "mod": 3730,
      "##ья": 3731,
      "usa": 3732,
      "##din": 3733,
      "league": 3734,
      "##ient": 3735,
      "##ial": 3736,
      "format": 3737,
      "ад": 3738,
      "Irish": 3739,
      "low": 3740,
      "##king": 3741,
      "center": 3742,
      "Ivan": 3743,
      "vu": 3744,
      "tri": 3745,
      "гг": 3746,
      "##tel": 3747,
      "Hitler": 3748,
      "##bile": 3749,
      "groups": 3750,
      "climate": 3751,
      "ги": 3752,
      "seen": 3753,
      "##мы": 3754,
      "1846": 3755,
      "Way": 3756,
      "Province": 3757,
      "Cross": 3758,
      "наук": 3759,
      "Для": 3760,
      "regular": 3761,
      "##tum": 3762,
      "##liga": 3763,
      "115": 3764,
      "Light": 3765,
      "##ови": 3766,
      "##mia": 3767,
      "ba": 3768,
      "followed": 3769,
      "planet": 3770,
      "чтобы": 3771,
      "Venezuela": 3772,
      "ku": 3773,
      "##tur": 3774,
      "Centro": 3775,
      "coach": 3776,
      "##gs": 3777,
      "Over": 3778,
      "##ev": 3779,
      "Johan": 3780,
      "##lon": 3781,
      "##али": 3782,
      "##red": 3783,
      "##jes": 3784,
      "##ngen": 3785,
      "disse": 3786,
      "##menti": 3787,
      "training": 3788,
      "це": 3789,
      "##ына": 3790,
      "Name": 3791,
      "Mar": 3792,
      "brother": 3793,
      "Clark": 3794,
      "##ности": 3795,
      "##tori": 3796,
      "Mais": 3797,
      "##зе": 3798,
      "Josef": 3799,
      "Fall": 3800,
      "##ров": 3801,
      "други": 3802,
      "годы": 3803,
      "1847": 3804,
      "light": 3805,
      "seven": 3806,
      "##ек": 3807,
      "##mit": 3808,
      "##гі": 3809,
      "##gh": 3810,
      "1815": 3811,
      "##usi": 3812,
      "completed": 3813,
      "Although": 3814,
      "Kelly": 3815,
      "double": 3816,
      "##rak": 3817,
      "##cal": 3818,
      "##hn": 3819,
      "##лык": 3820,
      "##zar": 3821,
      "##like": 3822,
      "Milan": 3823,
      "Meter": 3824,
      "##ит": 3825,
      "220": 3826,
      "Marcus": 3827,
      "Institution": 3828,
      "##yon": 3829,
      "111": 3830,
      "Ontario": 3831,
      "uns": 3832,
      "Jesus": 3833,
      "Hermann": 3834,
      "##iz": 3835,
      "Dance": 3836,
      "bad": 3837,
      "test": 3838,
      "центр": 3839,
      "февраля": 3840,
      "pag": 3841,
      "107": 3842,
      "108": 3843,
      "Hamilton": 3844,
      "##oli": 3845,
      "часть": 3846,
      "size": 3847,
      "территории": 3848,
      "##gio": 3849,
      "superior": 3850,
      "cargo": 3851,
      "mise": 3852,
      "ISO": 3853,
      "най": 3854,
      "##well": 3855,
      "ante": 3856,
      "negli": 3857,
      "##bau": 3858,
      "featured": 3859,
      "Сан": 3860,
      "killed": 3861,
      "Ann": 3862,
      "##ions": 3863,
      "Stand": 3864,
      "ст": 3865,
      "sue": 3866,
      "Billy": 3867,
      "dir": 3868,
      "истории": 3869,
      "Mann": 3870,
      "Wild": 3871,
      "semi": 3872,
      "volume": 3873,
      "cara": 3874,
      "##smo": 3875,
      "usually": 3876,
      "countries": 3877,
      "##rik": 3878,
      "throughout": 3879,
      "1845": 3880,
      "##же": 3881,
      "##ским": 3882,
      "##tico": 3883,
      "bod": 3884,
      "Back": 3885,
      "##wi": 3886,
      "Health": 3887,
      "##lde": 3888,
      "360": 3889,
      "##oon": 3890,
      "районе": 3891,
      "Vietnam": 3892,
      "reported": 3893,
      "Hugo": 3894,
      "More": 3895,
      "1842": 3896,
      "##ec": 3897,
      "Nelson": 3898,
      "##zio": 3899,
      "Technology": 3900,
      "immer": 3901,
      "Puerto": 3902,
      "##uit": 3903,
      "finished": 3904,
      "Del": 3905,
      "page": 3906,
      "##yan": 3907,
      "Philadelphia": 3908,
      "remained": 3909,
      "несколько": 3910,
      "##car": 3911,
      "Congress": 3912,
      "Edition": 3913,
      "##ду": 3914,
      "период": 3915,
      "##скую": 3916,
      "##eo": 3917,
      "Field": 3918,
      "surface": 3919,
      "Down": 3920,
      "cum": 3921,
      "schools": 3922,
      "Barbara": 3923,
      "Fire": 3924,
      "##ades": 3925,
      "240": 3926,
      "leading": 3927,
      "players": 3928,
      "##ture": 3929,
      "transport": 3930,
      "Hospital": 3931,
      "##П": 3932,
      "##ове": 3933,
      "Britain": 3934,
      "above": 3935,
      "##gel": 3936,
      "Not": 3937,
      "software": 3938,
      "Studio": 3939,
      "1844": 3940,
      "Sul": 3941,
      "##dem": 3942,
      "ABC": 3943,
      "sites": 3944,
      "DJ": 3945,
      "това": 3946,
      "Alice": 3947,
      "close": 3948,
      "cover": 3949,
      "##ones": 3950,
      "##ap": 3951,
      "ещё": 3952,
      "Dave": 3953,
      "##xe": 3954,
      "individual": 3955,
      "##hed": 3956,
      "college": 3957,
      "106": 3958,
      "Moon": 3959,
      "может": 3960,
      "било": 3961,
      "gas": 3962,
      "##uan": 3963,
      "Sri": 3964,
      "Andrea": 3965,
      "##sy": 3966,
      "either": 3967,
      "##tud": 3968,
      "contract": 3969,
      "##лу": 3970,
      "##ule": 3971,
      "##sky": 3972,
      "week": 3973,
      "##shi": 3974,
      "##mal": 3975,
      "Free": 3976,
      "Nick": 3977,
      "Directory": 3978,
      "112": 3979,
      "##ony": 3980,
      "вид": 3981,
      "begin": 3982,
      "love": 3983,
      "Near": 3984,
      "##kte": 3985,
      "SAD": 3986,
      "Jazz": 3987,
      "1814": 3988,
      "Spain": 3989,
      "awarded": 3990,
      "aircraft": 3991,
      "1837": 3992,
      "drie": 3993,
      "Jorge": 3994,
      "##лен": 3995,
      "век": 3996,
      "##дар": 3997,
      "адам": 3998,
      "Vincent": 3999,
      "##tia": 4000,
      "##ха": 4001,
      "bay": 4002,
      "esa": 4003,
      "Val": 4004,
      "##цию": 4005,
      "Dark": 4006,
      "128": 4007,
      "able": 4008,
      "Lawrence": 4009,
      "space": 4010,
      "##ech": 4011,
      "##ult": 4012,
      "Rudolf": 4013,
      "simple": 4014,
      "##stein": 4015,
      "которой": 4016,
      "##bes": 4017,
      "##sed": 4018,
      "##fall": 4019,
      "1839": 4020,
      "eight": 4021,
      "Theater": 4022,
      "Jimmy": 4023,
      "Zu": 4024,
      "##wski": 4025,
      "Et": 4026,
      "клуб": 4027,
      "Adolf": 4028,
      "##rse": 4029,
      "##ение": 4030,
      "Anton": 4031,
      "Med": 4032,
      "след": 4033,
      "involved": 4034,
      "##uto": 4035,
      "Hun": 4036,
      "##lah": 4037,
      "1834": 4038,
      "About": 4039,
      "##int": 4040,
      "Single": 4041,
      "hab": 4042,
      "1835": 4043,
      "##ches": 4044,
      "день": 4045,
      "Code": 4046,
      "##mon": 4047,
      "Nobel": 4048,
      "added": 4049,
      "bin": 4050,
      "federal": 4051,
      "##rta": 4052,
      "109": 4053,
      "##ving": 4054,
      "least": 4055,
      "##rk": 4056,
      "Charlie": 4057,
      "pol": 4058,
      "получил": 4059,
      "Eastern": 4060,
      "##ort": 4061,
      "states": 4062,
      "##nh": 4063,
      "много": 4064,
      "persona": 4065,
      "##ини": 4066,
      "Khan": 4067,
      "##oja": 4068,
      "eventually": 4069,
      "gang": 4070,
      "ek": 4071,
      "Come": 4072,
      "attack": 4073,
      "##å": 4074,
      "formation": 4075,
      "##ран": 4076,
      "1838": 4077,
      "Dead": 4078,
      "##ось": 4079,
      "##pes": 4080,
      "PC": 4081,
      "##sing": 4082,
      "Guy": 4083,
      "135": 4084,
      "Jordan": 4085,
      "##bor": 4086,
      "##nio": 4087,
      "Era": 4088,
      "##шы": 4089,
      "##led": 4090,
      "Ana": 4091,
      "##ors": 4092,
      "##gue": 4093,
      "related": 4094,
      "##gos": 4095,
      "дека": 4096,
      "Blues": 4097,
      "metres": 4098,
      "Jonathan": 4099,
      "Later": 4100,
      "##film": 4101,
      "##ming": 4102,
      "##tle": 4103,
      "Porto": 4104,
      "artist": 4105,
      "Ten": 4106,
      "Junior": 4107,
      "##су": 4108,
      "##dre": 4109,
      "##ab": 4110,
      "##nice": 4111,
      "Mas": 4112,
      "Conference": 4113,
      "би": 4114,
      "plant": 4115,
      "Boys": 4116,
      "##kov": 4117,
      "1843": 4118,
      "Donald": 4119,
      "##kas": 4120,
      "##сон": 4121,
      "##nna": 4122,
      "Nicolas": 4123,
      "##rice": 4124,
      "##ак": 4125,
      "кои": 4126,
      "regional": 4127,
      "degree": 4128,
      "##ance": 4129,
      "Ryan": 4130,
      "student": 4131,
      "##bin": 4132,
      "replaced": 4133,
      "cases": 4134,
      "##ай": 4135,
      "##ший": 4136,
      "Management": 4137,
      "##eti": 4138,
      "provided": 4139,
      "Jacob": 4140,
      "##nder": 4141,
      "1831": 4142,
      "##чу": 4143,
      "##тов": 4144,
      "rue": 4145,
      "которая": 4146,
      "unit": 4147,
      "wis": 4148,
      "Amt": 4149,
      "Course": 4150,
      "Gruppe": 4151,
      "Duke": 4152,
      "одного": 4153,
      "др": 4154,
      "sta": 4155,
      "##iche": 4156,
      "##sal": 4157,
      "medal": 4158,
      "см": 4159,
      "winning": 4160,
      "vice": 4161,
      "Sarah": 4162,
      "casi": 4163,
      "##aire": 4164,
      "Channel": 4165,
      "Ele": 4166,
      "self": 4167,
      "hos": 4168,
      "Terra": 4169,
      "##cho": 4170,
      "##чен": 4171,
      "Ian": 4172,
      "##ати": 4173,
      "independent": 4174,
      "Tropical": 4175,
      "goal": 4176,
      "##pp": 4177,
      "##ized": 4178,
      "1812": 4179,
      "1836": 4180,
      "editor": 4181,
      "своей": 4182,
      "##rit": 4183,
      "ul": 4184,
      "##ow": 4185,
      "область": 4186,
      "1644": 4187,
      "producer": 4188,
      "##ила": 4189,
      "роль": 4190,
      "nature": 4191,
      "га": 4192,
      "certain": 4193,
      "competition": 4194,
      "1841": 4195,
      "star": 4196,
      "##од": 4197,
      "normal": 4198,
      "117": 4199,
      "группы": 4200,
      "##dorf": 4201,
      "Stadium": 4202,
      "участие": 4203,
      "времени": 4204,
      "Franco": 4205,
      "Winter": 4206,
      "##var": 4207,
      "##ovi": 4208,
      "##ун": 4209,
      "Museo": 4210,
      "Bruno": 4211,
      "190": 4212,
      "##over": 4213,
      "Harris": 4214,
      "studies": 4215,
      "Rosa": 4216,
      "western": 4217,
      "став": 4218,
      "##ийн": 4219,
      "##vad": 4220,
      "Com": 4221,
      "##ара": 4222,
      "too": 4223,
      "Keith": 4224,
      "##ец": 4225,
      "Ross": 4226,
      "rights": 4227,
      "##lat": 4228,
      "camp": 4229,
      "clubs": 4230,
      "1600": 4231,
      "future": 4232,
      "seme": 4233,
      "450": 4234,
      "ver": 4235,
      "##az": 4236,
      "Gesellschaft": 4237,
      "##ania": 4238,
      "Chief": 4239,
      "экология": 4240,
      "Kansas": 4241,
      "Atlantic": 4242,
      "##py": 4243,
      "previous": 4244,
      "Harvard": 4245,
      "little": 4246,
      "##uma": 4247,
      "Railway": 4248,
      "##цев": 4249,
      "1832": 4250,
      "Girls": 4251,
      "Apollo": 4252,
      "##hr": 4253,
      "1833": 4254,
      "female": 4255,
      "Brazil": 4256,
      "systems": 4257,
      "##ден": 4258,
      "##logia": 4259,
      "Four": 4260,
      "1820": 4261,
      "End": 4262,
      "##ario": 4263,
      "Frau": 4264,
      "MTV": 4265,
      "Third": 4266,
      "##ення": 4267,
      "Jason": 4268,
      "Haus": 4269,
      "Teatro": 4270,
      "3rd": 4271,
      "Andy": 4272,
      "uk": 4273,
      "##цу": 4274,
      "##ute": 4275,
      "Benjamin": 4276,
      "Renaissance": 4277,
      "##bio": 4278,
      "##llen": 4279,
      "##eno": 4280,
      "##нд": 4281,
      "##ef": 4282,
      "##sus": 4283,
      "##pis": 4284,
      "##wo": 4285,
      "wel": 4286,
      "Head": 4287,
      "##eu": 4288,
      "Opera": 4289,
      "Salvador": 4290,
      "Machine": 4291,
      "##А": 4292,
      "##чы": 4293,
      "##ře": 4294,
      "двух": 4295,
      "##ischer": 4296,
      "##У": 4297,
      "Herbert": 4298,
      "rather": 4299,
      "Baker": 4300,
      "pay": 4301,
      "provide": 4302,
      "Islands": 4303,
      "port": 4304,
      "Oliver": 4305,
      "publication": 4306,
      "##или": 4307,
      "whose": 4308,
      "##вали": 4309,
      "##ats": 4310,
      "Leo": 4311,
      "Fred": 4312,
      "230": 4313,
      "##ym": 4314,
      "pdf": 4315,
      "1793": 4316,
      "ще": 4317,
      "##эн": 4318,
      "##ase": 4319,
      "##ped": 4320,
      "Sierra": 4321,
      "Asian": 4322,
      "Scotland": 4323,
      "night": 4324,
      "placed": 4325,
      "затем": 4326,
      "##och": 4327,
      "canal": 4328,
      "ground": 4329,
      "Алматы": 4330,
      "Mac": 4331,
      "fourth": 4332,
      "digital": 4333,
      "Erik": 4334,
      "Form": 4335,
      "Graham": 4336,
      "ему": 4337,
      "minister": 4338,
      "городских": 4339,
      "direct": 4340,
      "manager": 4341,
      "don": 4342,
      "ag": 4343,
      "Lincoln": 4344,
      "##aux": 4345,
      "Collins": 4346,
      "##ций": 4347,
      "##ческой": 4348,
      "Adams": 4349,
      "bass": 4350,
      "член": 4351,
      "Александр": 4352,
      "##ата": 4353,
      "code": 4354,
      "river": 4355,
      "123": 4356,
      "Matt": 4357,
      "But": 4358,
      "114": 4359,
      "Wright": 4360,
      "##ics": 4361,
      "label": 4362,
      "Songs": 4363,
      "Hy": 4364,
      "##ward": 4365,
      "всех": 4366,
      "113": 4367,
      "ami": 4368,
      "##dio": 4369,
      "##weg": 4370,
      "##ней": 4371,
      "success": 4372,
      "health": 4373,
      "##кий": 4374,
      "##ол": 4375,
      "ISSN": 4376,
      "owned": 4377,
      "Body": 4378,
      "Prize": 4379,
      "##umi": 4380,
      "##ned": 4381,
      "##xo": 4382,
      "##gal": 4383,
      "review": 4384,
      "mission": 4385,
      "Tag": 4386,
      "author": 4387,
      "##лись": 4388,
      "introduced": 4389,
      "ever": 4390,
      "##oma": 4391,
      "1821": 4392,
      "ran": 4393,
      "arts": 4394,
      "##wer": 4395,
      "вместе": 4396,
      "750": 4397,
      "##hl": 4398,
      "Fu": 4399,
      "##ento": 4400,
      "Castle": 4401,
      "stated": 4402,
      "seis": 4403,
      "себе": 4404,
      "Baby": 4405,
      "##нт": 4406,
      "##lles": 4407,
      "Champion": 4408,
      "mois": 4409,
      "Justice": 4410,
      "reached": 4411,
      "млн": 4412,
      "orbit": 4413,
      "##ides": 4414,
      "Nazionale": 4415,
      "dr": 4416,
      "116": 4417,
      "Libraries": 4418,
      "##lte": 4419,
      "##ность": 4420,
      "Another": 4421,
      "Welt": 4422,
      "Colorado": 4423,
      "saw": 4424,
      "##gy": 4425,
      "Just": 4426,
      "##ое": 4427,
      "Jewish": 4428,
      "Now": 4429,
      "almost": 4430,
      "movement": 4431,
      "составляет": 4432,
      "210": 4433,
      "Frederick": 4434,
      "Morgan": 4435,
      "##ets": 4436,
      "legal": 4437,
      "##bal": 4438,
      "Gustav": 4439,
      "Let": 4440,
      "##isten": 4441,
      "management": 4442,
      "находится": 4443,
      "behind": 4444,
      "southern": 4445,
      "Today": 4446,
      "Morris": 4447,
      "units": 4448,
      "качестве": 4449,
      "##kog": 4450,
      "Revolution": 4451,
      "##ников": 4452,
      "basis": 4453,
      "network": 4454,
      "Historical": 4455,
      "##нето": 4456,
      "Robin": 4457,
      "##dus": 4458,
      "##ёт": 4459,
      "Charlotte": 4460,
      "Studios": 4461,
      "Selected": 4462,
      "UNESCO": 4463,
      "Bayern": 4464,
      "##лся": 4465,
      "##dig": 4466,
      "Guinea": 4467,
      "Object": 4468,
      "нем": 4469,
      "Apple": 4470,
      "complex": 4471,
      "Jeff": 4472,
      "##inin": 4473,
      "Cuba": 4474,
      "Gallery": 4475,
      "##sme": 4476,
      "##rde": 4477,
      "quasi": 4478,
      "scored": 4479,
      "1200": 4480,
      "Express": 4481,
      "жизни": 4482,
      "##нии": 4483,
      "Straße": 4484,
      "##und": 4485,
      "экз": 4486,
      "Many": 4487,
      "epi": 4488,
      "Corps": 4489,
      "Wang": 4490,
      "##hausen": 4491,
      "Daily": 4492,
      "##жа": 4493,
      "mat": 4494,
      "раз": 4495,
      "CIA": 4496,
      "Edwards": 4497,
      "Championships": 4498,
      "Christmas": 4499,
      "Contemporary": 4500,
      "decided": 4501,
      "##sz": 4502,
      "##ament": 4503,
      "3D": 4504,
      "1825": 4505,
      "length": 4506,
      "pak": 4507,
      "##ities": 4508,
      "municipality": 4509,
      "Mars": 4510,
      "одним": 4511,
      "parents": 4512,
      "feet": 4513,
      "##pin": 4514,
      "influence": 4515,
      "tale": 4516,
      "ship": 4517,
      "market": 4518,
      "Fritz": 4519,
      "conditions": 4520,
      "Dream": 4521,
      "права": 4522,
      "1700": 4523,
      "campaign": 4524,
      "Raymond": 4525,
      "brought": 4526,
      "successful": 4527,
      "commercial": 4528,
      "rest": 4529,
      "northern": 4530,
      "Andreas": 4531,
      "Paolo": 4532,
      "ob": 4533,
      "Ces": 4534,
      "Survey": 4535,
      "##кан": 4536,
      "Medal": 4537,
      "среди": 4538,
      "##sar": 4539,
      "island": 4540,
      "##ница": 4541,
      "##lang": 4542,
      "Vilnius": 4543,
      "людей": 4544,
      "Arab": 4545,
      "##ця": 4546,
      "need": 4547,
      "produce": 4548,
      "##fica": 4549,
      "##ель": 4550,
      "Stati": 4551,
      "Doctor": 4552,
      "reste": 4553,
      "county": 4554,
      "approximately": 4555,
      "Age": 4556,
      "tournament": 4557,
      "##ord": 4558,
      "##aa": 4559,
      "1829": 4560,
      "Stefan": 4561,
      "##tiva": 4562,
      "##sie": 4563,
      "Praha": 4564,
      "kW": 4565,
      "##stan": 4566,
      "male": 4567,
      "sector": 4568,
      "121": 4569,
      "AS": 4570,
      "##kon": 4571,
      "industry": 4572,
      "Bridge": 4573,
      "instead": 4574,
      "##gne": 4575,
      "Papa": 4576,
      "stati": 4577,
      "Sound": 4578,
      "Par": 4579,
      "однако": 4580,
      "5000": 4581,
      "##ip": 4582,
      "Cultural": 4583,
      "turno": 4584,
      "Champions": 4585,
      "##dis": 4586,
      "THE": 4587,
      "1828": 4588,
      "our": 4589,
      "Captain": 4590,
      "001": 4591,
      "Place": 4592,
      "1806": 4593,
      "##kal": 4594,
      "elements": 4595,
      "стали": 4596,
      "results": 4597,
      "##sion": 4598,
      "required": 4599,
      "##kus": 4600,
      "Orchestra": 4601,
      "elevation": 4602,
      "Memorial": 4603,
      "Pietro": 4604,
      "previously": 4605,
      "##mat": 4606,
      "122": 4607,
      "##ес": 4608,
      "ua": 4609,
      "##pu": 4610,
      "especially": 4611,
      "Stewart": 4612,
      "##gus": 4613,
      "дел": 4614,
      "Coast": 4615,
      "##jar": 4616,
      "##cer": 4617,
      "Laura": 4618,
      "##bil": 4619,
      "##out": 4620,
      "118": 4621,
      "город": 4622,
      "род": 4623,
      "##non": 4624,
      "LP": 4625,
      "##mm": 4626,
      "Euro": 4627,
      "figure": 4628,
      "Sultan": 4629,
      "##ction": 4630,
      "traditional": 4631,
      "Gray": 4632,
      "складу": 4633,
      "feat": 4634,
      "Get": 4635,
      "лат": 4636,
      "below": 4637,
      "Однако": 4638,
      "Coupe": 4639,
      "Their": 4640,
      "report": 4641,
      "jazz": 4642,
      "outside": 4643,
      "writer": 4644,
      "##endo": 4645,
      "Обь": 4646,
      "Pop": 4647,
      "Angel": 4648,
      "Steven": 4649,
      "Санкт": 4650,
      "Muhammad": 4651,
      "means": 4652,
      "Bishop": 4653,
      "аст": 4654,
      "которого": 4655,
      "##esi": 4656,
      "organization": 4657,
      "listed": 4658,
      "itself": 4659,
      "Garden": 4660,
      "127": 4661,
      "corps": 4662,
      "honor": 4663,
      "Ez": 4664,
      "##ются": 4665,
      "lived": 4666,
      "Grant": 4667,
      "Ao": 4668,
      "##nel": 4669,
      "##ib": 4670,
      "sometimes": 4671,
      "имени": 4672,
      "##ical": 4673,
      "есть": 4674,
      "Miami": 4675,
      "primary": 4676,
      "Woman": 4677,
      "быть": 4678,
      "writing": 4679,
      "Kr": 4680,
      "##eli": 4681,
      "interest": 4682,
      "Bull": 4683,
      "##lie": 4684,
      "aki": 4685,
      "##nal": 4686,
      "YouTube": 4687,
      "Forest": 4688,
      "Berg": 4689,
      "##ione": 4690,
      "Rafael": 4691,
      "району": 4692,
      "Official": 4693,
      "Route": 4694,
      "Бассейн": 4695,
      "bit": 4696,
      "Jerry": 4697,
      "seat": 4698,
      "champion": 4699,
      "така": 4700,
      "Dutch": 4701,
      "Dom": 4702,
      "changed": 4703,
      "attended": 4704,
      "Water": 4705,
      "##pel": 4706,
      "score": 4707,
      "Marshall": 4708,
      "Play": 4709,
      "SM": 4710,
      "##mba": 4711,
      "Collection": 4712,
      "Silva": 4713,
      "plays": 4714,
      "award": 4715,
      "Design": 4716,
      "Arnold": 4717,
      "continue": 4718,
      "minor": 4719,
      "Sons": 4720,
      "Jon": 4721,
      "##yer": 4722,
      "EU": 4723,
      "ул": 4724,
      "##aja": 4725,
      "##ude": 4726,
      "FAQ": 4727,
      "##ева": 4728,
      "##nk": 4729,
      "Mix": 4730,
      "##хь": 4731,
      "train": 4732,
      "Airlines": 4733,
      "buildings": 4734,
      "переписи": 4735,
      "Pas": 4736,
      "##овой": 4737,
      "past": 4738,
      "Gli": 4739,
      "Melbourne": 4740,
      "##ники": 4741,
      "##ologie": 4742,
      "str": 4743,
      "##jer": 4744,
      "1802": 4745,
      "##sos": 4746,
      "Dame": 4747,
      "##има": 4748,
      "армии": 4749,
      "Primera": 4750,
      "126": 4751,
      "Area": 4752,
      "аб": 4753,
      "Kennedy": 4754,
      "theory": 4755,
      "##eurs": 4756,
      "museum": 4757,
      "##nici": 4758,
      "1824": 4759,
      "dog": 4760,
      "conquest": 4761,
      "senior": 4762,
      "stal": 4763,
      "featuring": 4764,
      "issues": 4765,
      "aller": 4766,
      "##лер": 4767,
      "Warner": 4768,
      "числе": 4769,
      "280": 4770,
      "find": 4771,
      "Standard": 4772,
      "145": 4773,
      "soon": 4774,
      "Chart": 4775,
      "complete": 4776,
      "Poland": 4777,
      "Avenue": 4778,
      "##hip": 4779,
      "1789": 4780,
      "чи": 4781,
      "##ein": 4782,
      "1813": 4783,
      "##erne": 4784,
      "paper": 4785,
      "Stars": 4786,
      "nou": 4787,
      "себя": 4788,
      "##lly": 4789,
      "view": 4790,
      "##ual": 4791,
      "Wisconsin": 4792,
      "1826": 4793,
      "significant": 4794,
      "runs": 4795,
      "данным": 4796,
      "##town": 4797,
      "Murray": 4798,
      "Assembly": 4799,
      "Monitoring": 4800,
      "money": 4801,
      "sport": 4802,
      "##gon": 4803,
      "##worth": 4804,
      "bronze": 4805,
      "##zet": 4806,
      "1818": 4807,
      "AG": 4808,
      "board": 4809,
      "##ndi": 4810,
      "Families": 4811,
      "administration": 4812,
      "##tua": 4813,
      "Lucas": 4814,
      "124": 4815,
      "##ву": 4816,
      "260": 4817,
      "Arena": 4818,
      "Olympic": 4819,
      "porta": 4820,
      "mes": 4821,
      "singer": 4822,
      "##до": 4823,
      "119": 4824,
      "##our": 4825,
      "tracks": 4826,
      "beginning": 4827,
      "##ён": 4828,
      "##ос": 4829,
      "Wolf": 4830,
      "##ив": 4831,
      "opening": 4832,
      "army": 4833,
      "names": 4834,
      "Lyon": 4835,
      "higher": 4836,
      "problema": 4837,
      "деревня": 4838,
      "Bij": 4839,
      "summer": 4840,
      "Alle": 4841,
      "Lost": 4842,
      "##О": 4843,
      "Franklin": 4844,
      "##Р": 4845,
      "##log": 4846,
      "##rato": 4847,
      "Margaret": 4848,
      "Canal": 4849,
      "##rata": 4850,
      "running": 4851,
      "Born": 4852,
      "155": 4853,
      "август": 4854,
      "##borg": 4855,
      "ji": 4856,
      "края": 4857,
      "человека": 4858,
      "городе": 4859,
      "fall": 4860,
      "##bili": 4861,
      "##ела": 4862,
      "##вала": 4863,
      "Carter": 4864,
      "child": 4865,
      "##ких": 4866,
      "Police": 4867,
      "Kinder": 4868,
      "Classification": 4869,
      "defeated": 4870,
      "Sony": 4871,
      "association": 4872,
      "##ular": 4873,
      "wide": 4874,
      "##rios": 4875,
      "Municipal": 4876,
      "##ческих": 4877,
      "according": 4878,
      "##bert": 4879,
      "##ain": 4880,
      "Mal": 4881,
      "problem": 4882,
      "WWE": 4883,
      "этой": 4884,
      "Mitte": 4885,
      "generally": 4886,
      "Sen": 4887,
      "taking": 4888,
      "##eva": 4889,
      "##time": 4890,
      "Mei": 4891,
      "##чного": 4892,
      "##ema": 4893,
      "give": 4894,
      "strong": 4895,
      "towards": 4896,
      "##ology": 4897,
      "eru": 4898,
      "175": 4899,
      "##side": 4900,
      "whom": 4901,
      "##бе": 4902,
      "associated": 4903,
      "##esa": 4904,
      "##eko": 4905,
      "##rek": 4906,
      "##чных": 4907,
      "##pat": 4908,
      "Barry": 4909,
      "bar": 4910,
      "millions": 4911,
      "Vladimir": 4912,
      "1016": 4913,
      "##ул": 4914,
      "gold": 4915,
      "част": 4916,
      "##yen": 4917,
      "Иван": 4918,
      "AC": 4919,
      "1790": 4920,
      "highest": 4921,
      "SC": 4922,
      "industrial": 4923,
      "hospital": 4924,
      "amor": 4925,
      "Phil": 4926,
      "годов": 4927,
      "NHL": 4928,
      "intentions": 4929,
      "Peru": 4930,
      "combat": 4931,
      "##nga": 4932,
      "allowed": 4933,
      "charge": 4934,
      "##вав": 4935,
      "lower": 4936,
      "eli": 4937,
      "scene": 4938,
      "Matthew": 4939,
      "image": 4940,
      "Campbell": 4941,
      "goals": 4942,
      "##ales": 4943,
      "##rdi": 4944,
      "Helsinki": 4945,
      "##nge": 4946,
      "Kurt": 4947,
      "##mt": 4948,
      "practice": 4949,
      "plans": 4950,
      "##ав": 4951,
      "USS": 4952,
      "sports": 4953,
      "Dal": 4954,
      "##ists": 4955,
      "##cat": 4956,
      "outcomes": 4957,
      "location": 4958,
      "##oda": 4959,
      "##вы": 4960,
      "unique": 4961,
      "##bat": 4962,
      "##ать": 4963,
      "##eth": 4964,
      "##ost": 4965,
      "engine": 4966,
      "income": 4967,
      "Warren": 4968,
      "##ового": 4969,
      "Here": 4970,
      "Cover": 4971,
      "##тор": 4972,
      "auto": 4973,
      "matches": 4974,
      "бу": 4975,
      "Page": 4976,
      "Children": 4977,
      "##цца": 4978,
      "totale": 4979,
      "railway": 4980,
      "Holland": 4981,
      "Brothers": 4982,
      "всего": 4983,
      "esto": 4984,
      "JPL": 4985,
      "pred": 4986,
      "##ndan": 4987,
      "contains": 4988,
      "##inger": 4989,
      "##ller": 4990,
      "Aus": 4991,
      "##ас": 4992,
      "1801": 4993,
      "heavy": 4994,
      "woman": 4995,
      "food": 4996,
      "270": 4997,
      "##ac": 4998,
      "##zed": 4999,
      "access": 5000,
      "Wood": 5001,
      "ATP": 5002,
      "Following": 5003,
      "1816": 5004,
      "##cies": 5005,
      "better": 5006,
      "##tir": 5007,
      "global": 5008,
      "Abu": 5009,
      "##mine": 5010,
      "1822": 5011,
      "##gd": 5012,
      "129": 5013,
      "PlayStation": 5014,
      "##els": 5015,
      "Turner": 5016,
      "rate": 5017,
      "##rant": 5018,
      "resto": 5019,
      "operations": 5020,
      "##лов": 5021,
      "##гы": 5022,
      "Medical": 5023,
      "али": 5024,
      "##ures": 5025,
      "##yle": 5026,
      "131": 5027,
      "Liverpool": 5028,
      "movie": 5029,
      "rural": 5030,
      "property": 5031,
      "##нов": 5032,
      "132": 5033,
      "##har": 5034,
      "Amor": 5035,
      "##cis": 5036,
      "144": 5037,
      "##cas": 5038,
      "OS": 5039,
      "Metal": 5040,
      "##ели": 5041,
      "administrative": 5042,
      "Evans": 5043,
      "##tter": 5044,
      "articles": 5045,
      "mode": 5046,
      "Plan": 5047,
      "##lands": 5048,
      "ended": 5049,
      "##iana": 5050,
      "Racing": 5051,
      "tok": 5052,
      "closed": 5053,
      "##ог": 5054,
      "##bt": 5055,
      "key": 5056,
      "1819": 5057,
      "работы": 5058,
      "thus": 5059,
      "##hal": 5060,
      "Denis": 5061,
      "cinema": 5062,
      "capita": 5063,
      "##ому": 5064,
      "Мн": 5065,
      "Our": 5066,
      "Roberts": 5067,
      "1827": 5068,
      "каталог": 5069,
      "Marcel": 5070,
      "distribution": 5071,
      "metro": 5072,
      "бо": 5073,
      "Ar": 5074,
      "##mie": 5075,
      "начале": 5076,
      "##esta": 5077,
      "районов": 5078,
      "##itas": 5079,
      "##ence": 5080,
      "можно": 5081,
      "##uda": 5082,
      "Statistics": 5083,
      "hold": 5084,
      "Владимир": 5085,
      "Java": 5086,
      "##э": 5087,
      "##kai": 5088,
      "страна": 5089,
      "effect": 5090,
      "##tina": 5091,
      "Bis": 5092,
      "##nier": 5093,
      "##vit": 5094,
      "Pictures": 5095,
      "distance": 5096,
      "школа": 5097,
      "##aka": 5098,
      "##jet": 5099,
      "Television": 5100,
      "euro": 5101,
      "JR": 5102,
      "##ений": 5103,
      "##bie": 5104,
      "134": 5105,
      "Wayne": 5106,
      "##nut": 5107,
      "sex": 5108,
      "Houston": 5109,
      "Dia": 5110,
      "Community": 5111,
      "Zur": 5112,
      "##kor": 5113,
      "Jay": 5114,
      "1758": 5115,
      "##щ": 5116,
      "additional": 5117,
      "##ric": 5118,
      "spent": 5119,
      "##mp": 5120,
      "##vio": 5121,
      "noted": 5122,
      "loss": 5123,
      "move": 5124,
      "##logy": 5125,
      "situation": 5126,
      "152": 5127,
      "stations": 5128,
      "##uh": 5129,
      "Это": 5130,
      "##rad": 5131,
      "energy": 5132,
      "20th": 5133,
      "Louise": 5134,
      "1792": 5135,
      "деп": 5136,
      "Early": 5137,
      "insect": 5138,
      "своего": 5139,
      "##ления": 5140,
      "VM": 5141,
      "##essa": 5142,
      "Tras": 5143,
      "##кого": 5144,
      "Fra": 5145,
      "fact": 5146,
      "Cape": 5147,
      "ch": 5148,
      "logo": 5149,
      "Dean": 5150,
      "чем": 5151,
      "##yd": 5152,
      "Pan": 5153,
      "Highway": 5154,
      "система": 5155,
      "133": 5156,
      "##back": 5157,
      "##ич": 5158,
      "Lima": 5159,
      "оны": 5160,
      "retired": 5161,
      "##cks": 5162,
      "eastern": 5163,
      "##usa": 5164,
      "##Б": 5165,
      "часто": 5166,
      "##TV": 5167,
      "##eni": 5168,
      "склад": 5169,
      "famous": 5170,
      "protein": 5171,
      "folk": 5172,
      "1817": 5173,
      "##aba": 5174,
      "##ками": 5175,
      "Spring": 5176,
      "ради": 5177,
      "Julius": 5178,
      "##кс": 5179,
      "parties": 5180,
      "Catalog": 5181,
      "Popular": 5182,
      "lite": 5183,
      "Stuart": 5184,
      "evidence": 5185,
      "серед": 5186,
      "Delhi": 5187,
      "Bau": 5188,
      "перед": 5189,
      "Hockey": 5190,
      "##tig": 5191,
      "##льных": 5192,
      "Only": 5193,
      "##ват": 5194,
      "Eva": 5195,
      "Moscow": 5196,
      "today": 5197,
      "##стве": 5198,
      "##rade": 5199,
      "Marina": 5200,
      "older": 5201,
      "battle": 5202,
      "Castro": 5203,
      "##льного": 5204,
      "computer": 5205,
      "##бы": 5206,
      "Broadway": 5207,
      "Afghanistan": 5208,
      "##ними": 5209,
      "##rium": 5210,
      "Parker": 5211,
      "Chr": 5212,
      "records": 5213,
      "око": 5214,
      "первый": 5215,
      "##ings": 5216,
      "Temple": 5217,
      "ага": 5218,
      "там": 5219,
      "ana": 5220,
      "Record": 5221,
      "136": 5222,
      "церкви": 5223,
      "##gin": 5224,
      "Mrs": 5225,
      "##ged": 5226,
      "1808": 5227,
      "Yang": 5228,
      "represented": 5229,
      "kon": 5230,
      "1809": 5231,
      "create": 5232,
      "demi": 5233,
      "##kos": 5234,
      "Austin": 5235,
      "##nant": 5236,
      "##itz": 5237,
      "cost": 5238,
      "launched": 5239,
      "Blood": 5240,
      "Украины": 5241,
      "cele": 5242,
      "Om": 5243,
      "companies": 5244,
      "terms": 5245,
      "CBS": 5246,
      "Earl": 5247,
      "Scottish": 5248,
      "animal": 5249,
      "##zat": 5250,
      "Hills": 5251,
      "Cooper": 5252,
      "Об": 5253,
      "Deep": 5254,
      "sv": 5255,
      "конце": 5256,
      "Alto": 5257,
      "Valencia": 5258,
      "font": 5259,
      "##nger": 5260,
      "earlier": 5261,
      "Political": 5262,
      "trade": 5263,
      "##ün": 5264,
      "320": 5265,
      "cast": 5266,
      "turn": 5267,
      "##iko": 5268,
      "##том": 5269,
      "vote": 5270,
      "staff": 5271,
      "сайты": 5272,
      "##enia": 5273,
      "Қазақстан": 5274,
      "internet": 5275,
      "cha": 5276,
      "связи": 5277,
      "река": 5278,
      "137": 5279,
      "Years": 5280,
      "Engineering": 5281,
      "Systems": 5282,
      "vain": 5283,
      "thought": 5284,
      "1795": 5285,
      "##ator": 5286,
      "имеет": 5287,
      "##ame": 5288,
      "mana": 5289,
      "##ян": 5290,
      "пунктов": 5291,
      "##adi": 5292,
      "Federation": 5293,
      "особи": 5294,
      "albums": 5295,
      "##вал": 5296,
      "agent": 5297,
      "Zone": 5298,
      "HD": 5299,
      "1803": 5300,
      "##icu": 5301,
      "##num": 5302,
      "Bot": 5303,
      "##all": 5304,
      "##ont": 5305,
      "htm": 5306,
      "Arbeit": 5307,
      "##nski": 5308,
      "##vala": 5309,
      "changes": 5310,
      "notable": 5311,
      "Silver": 5312,
      "##ств": 5313,
      "sources": 5314,
      "estate": 5315,
      "##ney": 5316,
      "##ues": 5317,
      "153": 5318,
      "##вой": 5319,
      "already": 5320,
      "recent": 5321,
      "##uer": 5322,
      "##eus": 5323,
      "##tak": 5324,
      "Elisabeth": 5325,
      "##nse": 5326,
      "E0": 5327,
      "journal": 5328,
      "Arte": 5329,
      "##uti": 5330,
      "Christ": 5331,
      "decide": 5332,
      "##ческого": 5333,
      "feature": 5334,
      "Sau": 5335,
      "##лан": 5336,
      "Economic": 5337,
      "numerous": 5338,
      "voi": 5339,
      "speed": 5340,
      "##IS": 5341,
      "going": 5342,
      "##ür": 5343,
      "##pet": 5344,
      "##ики": 5345,
      "appearance": 5346,
      "985": 5347,
      "bas": 5348,
      "1823": 5349,
      "##cing": 5350,
      "##dag": 5351,
      "hard": 5352,
      "##ис": 5353,
      "Fischer": 5354,
      "favor": 5355,
      "analysis": 5356,
      "tom": 5357,
      "степени": 5358,
      "округа": 5359,
      "takes": 5360,
      "##olo": 5361,
      "##най": 5362,
      "Kunst": 5363,
      "##eria": 5364,
      "##ime": 5365,
      "##cker": 5366,
      "##til": 5367,
      "hotel": 5368,
      "Valle": 5369,
      "types": 5370,
      "Days": 5371,
      "СПб": 5372,
      "Ministry": 5373,
      "##ega": 5374,
      "Parliament": 5375,
      "characters": 5376,
      "вони": 5377,
      "Wars": 5378,
      "##hat": 5379,
      "##ize": 5380,
      "specific": 5381,
      "название": 5382,
      "Olympics": 5383,
      "entire": 5384,
      "Су": 5385,
      "От": 5386,
      "##dit": 5387,
      "192": 5388,
      "value": 5389,
      "##тель": 5390,
      "Vice": 5391,
      "##bury": 5392,
      "Class": 5393,
      "DDR": 5394,
      "##tique": 5395,
      "Bulletin": 5396,
      "entered": 5397,
      "concept": 5398,
      "Watson": 5399,
      "Nintendo": 5400,
      "decision": 5401,
      "##ering": 5402,
      "165": 5403,
      "##oto": 5404,
      "##pie": 5405,
      "стр": 5406,
      "Front": 5407,
      "##rre": 5408,
      "annual": 5409,
      "Iron": 5410,
      "##lom": 5411,
      "##ър": 5412,
      "участь": 5413,
      "Plus": 5414,
      "places": 5415,
      "dire": 5416,
      "limited": 5417,
      "##ust": 5418,
      "Five": 5419,
      "##är": 5420,
      "##hy": 5421,
      "Democratic": 5422,
      "##Q": 5423,
      "##ulu": 5424,
      "sit": 5425,
      "activities": 5426,
      "prime": 5427,
      "officer": 5428,
      "Nicholas": 5429,
      "Linux": 5430,
      "##eve": 5431,
      "1811": 5432,
      "increased": 5433,
      "operated": 5434,
      "sound": 5435,
      "villages": 5436,
      "ГЗ": 5437,
      "##zing": 5438,
      "letter": 5439,
      "Complete": 5440,
      "programs": 5441,
      "host": 5442,
      "Before": 5443,
      "Bir": 5444,
      "Parks": 5445,
      "##ува": 5446,
      "##zin": 5447,
      "censo": 5448,
      "май": 5449,
      "Julia": 5450,
      "##iri": 5451,
      "fet": 5452,
      "Spider": 5453,
      "##rm": 5454,
      "##end": 5455,
      "##lem": 5456,
      "Lloyd": 5457,
      "##чке": 5458,
      "Conservation": 5459,
      "maps": 5460,
      "here": 5461,
      "##вати": 5462,
      "Ken": 5463,
      "##aga": 5464,
      "##vor": 5465,
      "separate": 5466,
      "##rel": 5467,
      "##ност": 5468,
      "Ari": 5469,
      "religious": 5470,
      "function": 5471,
      "bus": 5472,
      "Bobby": 5473,
      "Or": 5474,
      "Rolling": 5475,
      "BC": 5476,
      "биле": 5477,
      "Secretary": 5478,
      "Yu": 5479,
      "##mel": 5480,
      "Kent": 5481,
      "Reich": 5482,
      "##af": 5483,
      "##isa": 5484,
      "Leon": 5485,
      "Ne": 5486,
      "concert": 5487,
      "marine": 5488,
      "таких": 5489,
      "chief": 5490,
      "bank": 5491,
      "Military": 5492,
      "##iel": 5493,
      "##ници": 5494,
      "serve": 5495,
      "Hon": 5496,
      "##zel": 5497,
      "##rz": 5498,
      "medical": 5499,
      "Singapore": 5500,
      "149": 5501,
      "Motor": 5502,
      "Som": 5503,
      "места": 5504,
      "Taiwan": 5505,
      "bli": 5506,
      "artists": 5507,
      "138": 5508,
      "второй": 5509,
      "Square": 5510,
      "##ration": 5511,
      "majority": 5512,
      "Mont": 5513,
      "тата": 5514,
      "##cle": 5515,
      "Ball": 5516,
      "Language": 5517,
      "Desa": 5518,
      "Guatemala": 5519,
      "Site": 5520,
      "2019": 5521,
      "##lne": 5522,
      "Secret": 5523,
      "Position": 5524,
      "mille": 5525,
      "##ill": 5526,
      "##ып": 5527,
      "##lad": 5528,
      "148": 5529,
      "1804": 5530,
      "shot": 5531,
      "content": 5532,
      "143": 5533,
      "caused": 5534,
      "lines": 5535,
      "##ото": 5536,
      "Sankt": 5537,
      "Wall": 5538,
      "element": 5539,
      "##bs": 5540,
      "Films": 5541,
      "##tant": 5542,
      "##sm": 5543,
      "Dragon": 5544,
      "След": 5545,
      "федераль": 5546,
      "always": 5547,
      "ни": 5548,
      "selected": 5549,
      "##шим": 5550,
      "studied": 5551,
      "##ора": 5552,
      "##pun": 5553,
      "room": 5554,
      "got": 5555,
      "##ень": 5556,
      "этот": 5557,
      "Ve": 5558,
      "##ною": 5559,
      "hours": 5560,
      "141": 5561,
      "##zes": 5562,
      "##wen": 5563,
      "classes": 5564,
      "Ancient": 5565,
      "Lisa": 5566,
      "##бу": 5567,
      "Ciudad": 5568,
      "Discovery": 5569,
      "##more": 5570,
      "##фа": 5571,
      "GmbH": 5572,
      "Из": 5573,
      "яго": 5574,
      "1807": 5575,
      "Atlanta": 5576,
      "remains": 5577,
      "temple": 5578,
      "tim": 5579,
      "##stadt": 5580,
      "programme": 5581,
      "139": 5582,
      "sexual": 5583,
      "##льно": 5584,
      "Thailand": 5585,
      "us": 5586,
      "Larry": 5587,
      "cross": 5588,
      "husband": 5589,
      "##ois": 5590,
      "forms": 5591,
      "##aal": 5592,
      "pie": 5593,
      "Imperial": 5594,
      "Parti": 5595,
      "Также": 5596,
      "ak": 5597,
      "idi": 5598,
      "сам": 5599,
      "Sol": 5600,
      "particularly": 5601,
      "##une": 5602,
      "1805": 5603,
      "##скай": 5604,
      "март": 5605,
      "##tem": 5606,
      "Lan": 5607,
      "июль": 5608,
      "Ai": 5609,
      "словарь": 5610,
      "##нин": 5611,
      "146": 5612,
      "##щи": 5613,
      "Kenya": 5614,
      "Neil": 5615,
      "organisation": 5616,
      "Нью": 5617,
      "1794": 5618,
      "##ут": 5619,
      "##зу": 5620,
      "##ката": 5621,
      "##for": 5622,
      "scale": 5623,
      "тем": 5624,
      "##eau": 5625,
      "##lation": 5626,
      "Mayor": 5627,
      "monument": 5628,
      "Soul": 5629,
      "Oregon": 5630,
      "Detroit": 5631,
      "Met": 5632,
      "Sunday": 5633,
      "Но": 5634,
      "victory": 5635,
      "##кою": 5636,
      "positive": 5637,
      "##mise": 5638,
      "##ines": 5639,
      "честь": 5640,
      "university": 5641,
      "##form": 5642,
      "Население": 5643,
      "Box": 5644,
      "Original": 5645,
      "technology": 5646,
      "Magic": 5647,
      "tv": 5648,
      "OL": 5649,
      "Urban": 5650,
      "mostly": 5651,
      "работал": 5652,
      "index": 5653,
      "##ally": 5654,
      "aid": 5655,
      "##rate": 5656,
      "##zt": 5657,
      "##ците": 5658,
      "##rem": 5659,
      "leis": 5660,
      "##hon": 5661,
      "19th": 5662,
      "Profile": 5663,
      "Bird": 5664,
      "toe": 5665,
      "application": 5666,
      "##дын": 5667,
      "Mi": 5668,
      "##bos": 5669,
      "##ball": 5670,
      "sister": 5671,
      "NHK": 5672,
      "relationship": 5673,
      "Roland": 5674,
      "147": 5675,
      "##чний": 5676,
      "##пе": 5677,
      "meeting": 5678,
      "relations": 5679,
      "lot": 5680,
      "act": 5681,
      "moun": 5682,
      "##эр": 5683,
      "cities": 5684,
      "другие": 5685,
      "altitude": 5686,
      "Knight": 5687,
      "Geographic": 5688,
      "Беларусь": 5689,
      "185": 5690,
      "villa": 5691,
      "note": 5692,
      "multiple": 5693,
      "rus": 5694,
      "extra": 5695,
      "Polish": 5696,
      "historical": 5697,
      "uses": 5698,
      "Dennis": 5699,
      "recording": 5700,
      "becoming": 5701,
      "Ralph": 5702,
      "Ukraine": 5703,
      "referred": 5704,
      "142": 5705,
      "январь": 5706,
      "Publications": 5707,
      "notes": 5708,
      "##мо": 5709,
      "Terry": 5710,
      "##hes": 5711,
      "Mitchell": 5712,
      "##fied": 5713,
      "hin": 5714,
      "society": 5715,
      "Jeho": 5716,
      "deal": 5717,
      "Unit": 5718,
      "##nem": 5719,
      "Prime": 5720,
      "##icus": 5721,
      "##ace": 5722,
      "лише": 5723,
      "##ског": 5724,
      "##ись": 5725,
      "Base": 5726,
      "Abraham": 5727,
      "##ug": 5728,
      "##ус": 5729,
      "Mans": 5730,
      "культуры": 5731,
      "##gn": 5732,
      "nine": 5733,
      "##iano": 5734,
      "##stra": 5735,
      "##ization": 5736,
      "Laurent": 5737,
      "##ep": 5738,
      "##stu": 5739,
      "Dick": 5740,
      "shown": 5741,
      "##сан": 5742,
      "supported": 5743,
      "##die": 5744,
      "##nsa": 5745,
      "Dallas": 5746,
      "##ад": 5747,
      "passed": 5748,
      "##ово": 5749,
      "##ась": 5750,
      "Hughes": 5751,
      "Camp": 5752,
      "Kaiser": 5753,
      "##kk": 5754,
      "presented": 5755,
      "native": 5756,
      "Din": 5757,
      "##cem": 5758,
      "subject": 5759,
      "##нской": 5760,
      "##air": 5761,
      "Николай": 5762,
      "##dea": 5763,
      "Hunter": 5764,
      "##lja": 5765,
      "tradition": 5766,
      "например": 5767,
      "forced": 5768,
      "##cca": 5769,
      "##ур": 5770,
      "право": 5771,
      "Hi": 5772,
      "Novi": 5773,
      "operation": 5774,
      "Control": 5775,
      "##pas": 5776,
      "##oe": 5777,
      "муниципальных": 5778,
      "hau": 5779,
      "Rick": 5780,
      "##sat": 5781,
      "##ís": 5782,
      "1798": 5783,
      "friend": 5784,
      "Совет": 5785,
      "Tu": 5786,
      "##рия": 5787,
      "campus": 5788,
      "##tone": 5789,
      "##bet": 5790,
      "kilometres": 5791,
      "##oz": 5792,
      "Tommy": 5793,
      "UA": 5794,
      "Serbia": 5795,
      "individuals": 5796,
      "##nic": 5797,
      "##teen": 5798,
      "pr": 5799,
      "Sint": 5800,
      "##als": 5801,
      "##sas": 5802,
      "longer": 5803,
      "##вся": 5804,
      "stat": 5805,
      "lea": 5806,
      "Boeing": 5807,
      "##ять": 5808,
      "middle": 5809,
      "themselves": 5810,
      "##ores": 5811,
      "##кова": 5812,
      "Fe": 5813,
      "Perry": 5814,
      "##dh": 5815,
      "pat": 5816,
      "##ppen": 5817,
      "Independent": 5818,
      "##hof": 5819,
      "Guardian": 5820,
      "engl": 5821,
      "question": 5822,
      "radius": 5823,
      "##oso": 5824,
      "##ук": 5825,
      "##rou": 5826,
      "Ho": 5827,
      "diversi": 5828,
      "##yla": 5829,
      "Services": 5830,
      "Note": 5831,
      "##нского": 5832,
      "203": 5833,
      "коли": 5834,
      "fill": 5835,
      "##лось": 5836,
      "##eda": 5837,
      "provides": 5838,
      "##yt": 5839,
      "##tein": 5840,
      "##rung": 5841,
      "##rg": 5842,
      "serving": 5843,
      "pages": 5844,
      "##nz": 5845,
      "##see": 5846,
      "##ках": 5847,
      "##rka": 5848,
      "Так": 5849,
      "Foreign": 5850,
      "Carmen": 5851,
      "пад": 5852,
      "programma": 5853,
      "##lot": 5854,
      "jer": 5855,
      "##лась": 5856,
      "##ako": 5857,
      "appears": 5858,
      "##iers": 5859,
      "##ником": 5860,
      "increase": 5861,
      "1799": 5862,
      "Re": 5863,
      "##10": 5864,
      "##зм": 5865,
      "##por": 5866,
      "##ческие": 5867,
      "variety": 5868,
      "##isation": 5869,
      "##osi": 5870,
      "##of": 5871,
      "##ole": 5872,
      "Prima": 5873,
      "151": 5874,
      "##yang": 5875,
      "##gua": 5876,
      "##mana": 5877,
      "protection": 5878,
      "##шки": 5879,
      "фильм": 5880,
      "Rey": 5881,
      "politician": 5882,
      "##unda": 5883,
      "##tate": 5884,
      "1791": 5885,
      "GMT": 5886,
      "sort": 5887,
      "Ron": 5888,
      "done": 5889,
      "##ыя": 5890,
      "Rob": 5891,
      "##зы": 5892,
      "problems": 5893,
      "##head": 5894,
      "##ум": 5895,
      "4th": 5896,
      "phase": 5897,
      "##wn": 5898,
      "virus": 5899,
      "##gie": 5900,
      "vest": 5901,
      "159": 5902,
      "Unter": 5903,
      "156": 5904,
      "##Т": 5905,
      "dance": 5906,
      "##pur": 5907,
      "образом": 5908,
      "Dei": 5909,
      "composed": 5910,
      "##ток": 5911,
      "становить": 5912,
      "1400": 5913,
      "##ван": 5914,
      "Muslim": 5915,
      "##lage": 5916,
      "larger": 5917,
      "население": 5918,
      "168": 5919,
      "zones": 5920,
      "##ір": 5921,
      "Egypt": 5922,
      "your": 5923,
      "Baron": 5924,
      "Alain": 5925,
      "Comics": 5926,
      "Never": 5927,
      "fiction": 5928,
      "assim": 5929,
      "Units": 5930,
      "Governor": 5931,
      "initially": 5932,
      "Schloss": 5933,
      "##ume": 5934,
      "Naval": 5935,
      "Limited": 5936,
      "Ecuador": 5937,
      "##dou": 5938,
      "154": 5939,
      "1797": 5940,
      "pois": 5941,
      "альбом": 5942,
      "лишь": 5943,
      "Notre": 5944,
      "##cco": 5945,
      "Dublin": 5946,
      "##тын": 5947,
      "##uz": 5948,
      "Ocean": 5949,
      "Korean": 5950,
      "##ві": 5951,
      "##лин": 5952,
      "bo": 5953,
      "sala": 5954,
      "stock": 5955,
      "##уу": 5956,
      "sou": 5957,
      "##ене": 5958,
      "stop": 5959,
      "raised": 5960,
      "singles": 5961,
      "##maa": 5962,
      "##chte": 5963,
      "##gem": 5964,
      "##lara": 5965,
      "Mercedes": 5966,
      "prison": 5967,
      "##ление": 5968,
      "Uruguay": 5969,
      "Classic": 5970,
      "Его": 5971,
      "##бор": 5972,
      "Союза": 5973,
      "Emma": 5974,
      "Singh": 5975,
      "##ье": 5976,
      "Orange": 5977,
      "Том": 5978,
      "makes": 5979,
      "##ине": 5980,
      "330": 5981,
      "Ye": 5982,
      "religion": 5983,
      "EM": 5984,
      "financial": 5985,
      "##lum": 5986,
      "##xi": 5987,
      "call": 5988,
      "университета": 5989,
      "##has": 5990,
      "ним": 5991,
      "##bank": 5992,
      "##off": 5993,
      "fem": 5994,
      "Ferrari": 5995,
      "Alaska": 5996,
      "##iet": 5997,
      "Vienna": 5998,
      "##uch": 5999,
      "gift": 6000,
      "Also": 6001,
      "укр": 6002,
      "очень": 6003,
      "Jerusalem": 6004,
      "Flora": 6005,
      "Six": 6006,
      "existence": 6007,
      "Graf": 6008,
      "pilot": 6009,
      "populations": 6010,
      "##rica": 6011,
      "Masters": 6012,
      "races": 6013,
      "experience": 6014,
      "Torre": 6015,
      "##unt": 6016,
      "Congo": 6017,
      "king": 6018,
      "contact": 6019,
      "Metro": 6020,
      "собой": 6021,
      "Chemistry": 6022,
      "pl": 6023,
      "момент": 6024,
      "Buch": 6025,
      "##ub": 6026,
      "##ised": 6027,
      "Medicine": 6028,
      "Berliner": 6029,
      "##wald": 6030,
      "550": 6031,
      "бассейн": 6032,
      "##рт": 6033,
      "Computer": 6034,
      "##ног": 6035,
      "##ght": 6036,
      "sat": 6037,
      "Bar": 6038,
      "одной": 6039,
      "massa": 6040,
      "своих": 6041,
      "Peace": 6042,
      "##wel": 6043,
      "##ved": 6044,
      "raz": 6045,
      "##oy": 6046,
      "versions": 6047,
      "##dne": 6048,
      "##tok": 6049,
      "##ющий": 6050,
      "believed": 6051,
      "Oriental": 6052,
      "mag": 6053,
      "ball": 6054,
      "201": 6055,
      "##yr": 6056,
      "##ета": 6057,
      "##platz": 6058,
      "Burg": 6059,
      "agit": 6060,
      "claimed": 6061,
      "Совета": 6062,
      "parish": 6063,
      "##дия": 6064,
      "cell": 6065,
      "Hand": 6066,
      "weeks": 6067,
      "Side": 6068,
      "Mare": 6069,
      "championship": 6070,
      "stars": 6071,
      "##fu": 6072,
      "Philippines": 6073,
      "nuclear": 6074,
      "union": 6075,
      "##rian": 6076,
      "Colin": 6077,
      "##bit": 6078,
      "Production": 6079,
      "Introduction": 6080,
      "failed": 6081,
      "allo": 6082,
      "fight": 6083,
      "Latvijas": 6084,
      "architecture": 6085,
      "##пи": 6086,
      "Historic": 6087,
      "##band": 6088,
      "##kap": 6089,
      "FA": 6090,
      "foreign": 6091,
      "##nska": 6092,
      "##ann": 6093,
      "сезона": 6094,
      "Federico": 6095,
      "1796": 6096,
      "##стей": 6097,
      "##iger": 6098,
      "command": 6099,
      "свой": 6100,
      "##ано": 6101,
      "Германия": 6102,
      "##mir": 6103,
      "winner": 6104,
      "mainly": 6105,
      "Lanka": 6106,
      "назначен": 6107,
      "Rica": 6108,
      "роки": 6109,
      "troops": 6110,
      "electronic": 6111,
      "##bility": 6112,
      "offered": 6113,
      "##рана": 6114,
      "225": 6115,
      "тип": 6116,
      "Lane": 6117,
      "1775": 6118,
      "Hugh": 6119,
      "Theo": 6120,
      "##chaft": 6121,
      "##dere": 6122,
      "205": 6123,
      "Primary": 6124,
      "##cz": 6125,
      "##rkan": 6126,
      "bal": 6127,
      "##kka": 6128,
      "vivo": 6129,
      "moi": 6130,
      "helped": 6131,
      "Affairs": 6132,
      "Dresden": 6133,
      "products": 6134,
      "Due": 6135,
      "##iki": 6136,
      "##ick": 6137,
      "Seattle": 6138,
      "##ще": 6139,
      "167": 6140,
      "##nat": 6141,
      "##bro": 6142,
      "Security": 6143,
      "##бург": 6144,
      "##лей": 6145,
      "Karel": 6146,
      "mam": 6147,
      "##imi": 6148,
      "##yk": 6149,
      "Sweden": 6150,
      "tennis": 6151,
      "Hudson": 6152,
      "overall": 6153,
      "border": 6154,
      "fans": 6155,
      "результате": 6156,
      "numbers": 6157,
      "##oko": 6158,
      "##kie": 6159,
      "Grammy": 6160,
      "subsequently": 6161,
      "consists": 6162,
      "##ggi": 6163,
      "Kate": 6164,
      "1300": 6165,
      "couple": 6166,
      "might": 6167,
      "prior": 6168,
      "Both": 6169,
      "##idas": 6170,
      "Jo": 6171,
      "##gli": 6172,
      "Montreal": 6173,
      "Dam": 6174,
      "drug": 6175,
      "assistant": 6176,
      "response": 6177,
      "Giorgio": 6178,
      "##onia": 6179,
      "leaving": 6180,
      "завод": 6181,
      "hall": 6182,
      "acquired": 6183,
      "Rico": 6184,
      "##gut": 6185,
      "MS": 6186,
      "521": 6187,
      "Ich": 6188,
      "157": 6189,
      "##dent": 6190,
      "turned": 6191,
      "##ctor": 6192,
      "press": 6193,
      "hockey": 6194,
      "##scher": 6195,
      "whole": 6196,
      "##onal": 6197,
      "##tou": 6198,
      "sui": 6199,
      "##eb": 6200,
      "Energy": 6201,
      "власти": 6202,
      "figures": 6203,
      "##00": 6204,
      "котором": 6205,
      "oil": 6206,
      "Seven": 6207,
      "Newton": 6208,
      "department": 6209,
      "##шка": 6210,
      "sam": 6211,
      "##rra": 6212,
      "carried": 6213,
      "##ars": 6214,
      "##ppe": 6215,
      "жители": 6216,
      "##water": 6217,
      "Phoenix": 6218,
      "##ання": 6219,
      "зв": 6220,
      "transfer": 6221,
      "##lam": 6222,
      "Cook": 6223,
      "война": 6224,
      "##ити": 6225,
      "Не": 6226,
      "bridge": 6227,
      "##gg": 6228,
      "mile": 6229,
      "650": 6230,
      "mind": 6231,
      "nego": 6232,
      "Ved": 6233,
      "##чение": 6234,
      "290": 6235,
      "Electric": 6236,
      "Bush": 6237,
      "##vil": 6238,
      "течение": 6239,
      "Angola": 6240,
      "##gna": 6241,
      "meaning": 6242,
      "stories": 6243,
      "##ький": 6244,
      "vocal": 6245,
      "##mina": 6246,
      "161": 6247,
      "Browser": 6248,
      "сих": 6249,
      "houses": 6250,
      "##ove": 6251,
      "Software": 6252,
      "##ром": 6253,
      "Marvel": 6254,
      "##cken": 6255,
      "##uo": 6256,
      "Operation": 6257,
      "##лю": 6258,
      "##тары": 6259,
      "Zum": 6260,
      "Feb": 6261,
      "Delta": 6262,
      "Take": 6263,
      "Solo": 6264,
      "fora": 6265,
      "Action": 6266,
      "##mme": 6267,
      "interview": 6268,
      "##ssen": 6269,
      "1980s": 6270,
      "ancient": 6271,
      "opposition": 6272,
      "Despite": 6273,
      "Bas": 6274,
      "Rom": 6275,
      "158": 6276,
      "Sus": 6277,
      "multi": 6278,
      "sing": 6279,
      "finally": 6280,
      "##stica": 6281,
      "Galerie": 6282,
      "voice": 6283,
      "SBS": 6284,
      "163": 6285,
      "Theory": 6286,
      "effects": 6287,
      "SK": 6288,
      "##ktor": 6289,
      "##овых": 6290,
      "Via": 6291,
      "##lina": 6292,
      "##ьной": 6293,
      "##rda": 6294,
      "Sean": 6295,
      "marriage": 6296,
      "PS": 6297,
      "earned": 6298,
      "Railways": 6299,
      "permanent": 6300,
      "words": 6301,
      "систем": 6302,
      "Beatles": 6303,
      "Type": 6304,
      "##gate": 6305,
      "Petit": 6306,
      "##lica": 6307,
      "Кубка": 6308,
      "##ющих": 6309,
      "##aya": 6310,
      "impact": 6311,
      "SA": 6312,
      "##bas": 6313,
      "np": 6314,
      "pole": 6315,
      "##rst": 6316,
      "##fo": 6317,
      "##jin": 6318,
      "Ba": 6319,
      "occasion": 6320,
      "Helen": 6321,
      "attention": 6322,
      "Cleveland": 6323,
      "Ward": 6324,
      "##М": 6325,
      "Grace": 6326,
      "tropical": 6327,
      "Klaus": 6328,
      "начала": 6329,
      "##ike": 6330,
      "##ями": 6331,
      "Statistical": 6332,
      "Bremen": 6333,
      "Jennifer": 6334,
      "##лган": 6335,
      "Edinburgh": 6336,
      "nearly": 6337,
      "treatment": 6338,
      "Sophie": 6339,
      "Swedish": 6340,
      "languages": 6341,
      "нар": 6342,
      "broadcast": 6343,
      "attempt": 6344,
      "seasons": 6345,
      "habe": 6346,
      "comes": 6347,
      "enough": 6348,
      "страны": 6349,
      "##ява": 6350,
      "Baltimore": 6351,
      "Sofia": 6352,
      "lives": 6353,
      "Tower": 6354,
      "plants": 6355,
      "##wr": 6356,
      "machine": 6357,
      "Capital": 6358,
      "Pero": 6359,
      "torre": 6360,
      "##rina": 6361,
      "Sweet": 6362,
      "##gung": 6363,
      "remaining": 6364,
      "Chelsea": 6365,
      "Te": 6366,
      "OCLC": 6367,
      "##row": 6368,
      "Iraq": 6369,
      "reference": 6370,
      "Formula": 6371,
      "сельского": 6372,
      "##rius": 6373,
      "Boris": 6374,
      "Napoleon": 6375,
      "Potter": 6376,
      "Tra": 6377,
      "##ыми": 6378,
      "Ronald": 6379,
      "256": 6380,
      "##list": 6381,
      "Round": 6382,
      "##iros": 6383,
      "bl": 6384,
      "Run": 6385,
      "channel": 6386,
      "дом": 6387,
      "Luke": 6388,
      "Sex": 6389,
      "##ory": 6390,
      "Джон": 6391,
      "##iar": 6392,
      "##той": 6393,
      "166": 6394,
      "Future": 6395,
      "box": 6396,
      "##lit": 6397,
      "##ncies": 6398,
      "nl": 6399,
      "Nation": 6400,
      "више": 6401,
      "онд": 6402,
      "want": 6403,
      "изд": 6404,
      "##vik": 6405,
      "product": 6406,
      "син": 6407,
      "Mundo": 6408,
      "Vancouver": 6409,
      "sens": 6410,
      "covered": 6411,
      "##ship": 6412,
      "ring": 6413,
      "##ческий": 6414,
      "Ring": 6415,
      "levels": 6416,
      "##ното": 6417,
      "##рын": 6418,
      "fills": 6419,
      "##tri": 6420,
      "Mart": 6421,
      "Lars": 6422,
      "164": 6423,
      "Wiener": 6424,
      "252": 6425,
      "responsible": 6426,
      "Vegas": 6427,
      "Chiesa": 6428,
      "##ded": 6429,
      "##uf": 6430,
      "##sation": 6431,
      "##ū": 6432,
      "##ио": 6433,
      "cut": 6434,
      "176": 6435,
      "proposed": 6436,
      "##cke": 6437,
      "юм": 6438,
      "tin": 6439,
      "Building": 6440,
      "Ban": 6441,
      "fit": 6442,
      "162": 6443,
      "Isaac": 6444,
      "Child": 6445,
      "Heritage": 6446,
      "##rico": 6447,
      "AB": 6448,
      "##psis": 6449,
      "217": 6450,
      "224": 6451,
      "4000": 6452,
      "##дин": 6453,
      "можна": 6454,
      "##цией": 6455,
      "Wide": 6456,
      "Holy": 6457,
      "NATO": 6458,
      "Key": 6459,
      "##льной": 6460,
      "##hold": 6461,
      "##чни": 6462,
      "Cameron": 6463,
      "##ческая": 6464,
      "Felix": 6465,
      "профессор": 6466,
      "##зма": 6467,
      "##enti": 6468,
      "IBM": 6469,
      "Canton": 6470,
      "latter": 6471,
      "issued": 6472,
      "##tation": 6473,
      "Hal": 6474,
      "technique": 6475,
      "Craig": 6476,
      "##pte": 6477,
      "##uga": 6478,
      "initial": 6479,
      "206": 6480,
      "ал": 6481,
      "regions": 6482,
      "##сен": 6483,
      "heart": 6484,
      "ala": 6485,
      "##eid": 6486,
      "asi": 6487,
      "chart": 6488,
      "coa": 6489,
      "полк": 6490,
      "discovered": 6491,
      "##jat": 6492,
      "пам": 6493,
      "minute": 6494,
      "NBC": 6495,
      "Kane": 6496,
      "bare": 6497,
      "##lay": 6498,
      "даже": 6499,
      "xa": 6500,
      "sorti": 6501,
      "София": 6502,
      "Republican": 6503,
      "extended": 6504,
      "table": 6505,
      "documents": 6506,
      "##ilo": 6507,
      "Stato": 6508,
      "##OS": 6509,
      "почти": 6510,
      "типа": 6511,
      "##oj": 6512,
      "Rugby": 6513,
      "смерти": 6514,
      "Store": 6515,
      "Ла": 6516,
      "Transport": 6517,
      "Website": 6518,
      "Justin": 6519,
      "195": 6520,
      "1780": 6521,
      "yet": 6522,
      "factor": 6523,
      "Again": 6524,
      "##enne": 6525,
      "Renault": 6526,
      "##hir": 6527,
      "1784": 6528,
      "1970s": 6529,
      "системы": 6530,
      "Door": 6531,
      "security": 6532,
      "Cet": 6533,
      "know": 6534,
      "##uro": 6535,
      "junior": 6536,
      "##телей": 6537,
      "Archive": 6538,
      "vel": 6539,
      "235": 6540,
      "##ock": 6541,
      "1787": 6542,
      "Михаил": 6543,
      "starting": 6544,
      "##ических": 6545,
      "##cka": 6546,
      "dock": 6547,
      "208": 6548,
      "wsi": 6549,
      "whether": 6550,
      "##ston": 6551,
      "##kes": 6552,
      "##ао": 6553,
      "Agency": 6554,
      "##ters": 6555,
      "Alliance": 6556,
      "Forum": 6557,
      "sciences": 6558,
      "##stas": 6559,
      "##igo": 6560,
      "quality": 6561,
      "172": 6562,
      "kata": 6563,
      "disease": 6564,
      "importance": 6565,
      "##rien": 6566,
      "lid": 6567,
      "182": 6568,
      "Plaza": 6569,
      "Bulgaria": 6570,
      "##mma": 6571,
      "told": 6572,
      "##rni": 6573,
      "Bee": 6574,
      "проти": 6575,
      "Chi": 6576,
      "##hos": 6577,
      "1783": 6578,
      "##шая": 6579,
      "grade": 6580,
      "##aar": 6581,
      "leave": 6582,
      "Alter": 6583,
      "cos": 6584,
      "центра": 6585,
      "quest": 6586,
      "177": 6587,
      "##тва": 6588,
      "Bonn": 6589,
      "rule": 6590,
      "##mont": 6591,
      "##etti": 6592,
      "##med": 6593,
      "Kings": 6594,
      "allow": 6595,
      "Кыргыз": 6596,
      "friends": 6597,
      "lies": 6598,
      "Administration": 6599,
      "свои": 6600,
      "god": 6601,
      "VF": 6602,
      "master": 6603,
      "Palace": 6604,
      "inter": 6605,
      "212": 6606,
      "true": 6607,
      "сын": 6608,
      "Was": 6609,
      "Between": 6610,
      "##kem": 6611,
      "mass": 6612,
      "Netherlands": 6613,
      "##ttu": 6614,
      "Nigeria": 6615,
      "households": 6616,
      "newspaper": 6617,
      "стало": 6618,
      "215": 6619,
      "Spencer": 6620,
      "1788": 6621,
      "elections": 6622,
      "##ctus": 6623,
      "residents": 6624,
      "##fication": 6625,
      "drums": 6626,
      "directly": 6627,
      "213": 6628,
      "Metropolitan": 6629,
      "169": 6630,
      "##fel": 6631,
      "despite": 6632,
      "##лом": 6633,
      "Hindu": 6634,
      "Hope": 6635,
      "града": 6636,
      "##ess": 6637,
      "candidate": 6638,
      "##енко": 6639,
      "basketball": 6640,
      "##elo": 6641,
      "Emperor": 6642,
      "actions": 6643,
      "efforts": 6644,
      "чего": 6645,
      "##ими": 6646,
      "##zzi": 6647,
      "Grupo": 6648,
      "##oir": 6649,
      "##лия": 6650,
      "Study": 6651,
      "constructed": 6652,
      "сезон": 6653,
      "##лог": 6654,
      "Glasgow": 6655,
      "Czech": 6656,
      "Islamic": 6657,
      "asked": 6658,
      "says": 6659,
      "selle": 6660,
      "книги": 6661,
      "граф": 6662,
      "##ago": 6663,
      "одна": 6664,
      "Hell": 6665,
      "202": 6666,
      "grandi": 6667,
      "Chen": 6668,
      "##vina": 6669,
      "##логия": 6670,
      "big": 6671,
      "Campo": 6672,
      "Challenge": 6673,
      "commence": 6674,
      "##pio": 6675,
      "##lies": 6676,
      "activity": 6677,
      "hal": 6678,
      "Youth": 6679,
      "##шей": 6680,
      "coast": 6681,
      "Berkeley": 6682,
      "##alo": 6683,
      "##нта": 6684,
      "коду": 6685,
      "Organisation": 6686,
      "Linda": 6687,
      "##ees": 6688,
      "##eit": 6689,
      "fifth": 6690,
      "##ple": 6691,
      "formerly": 6692,
      "Works": 6693,
      "consiste": 6694,
      "##dde": 6695,
      "graduated": 6696,
      "inferior": 6697,
      "204": 6698,
      "ea": 6699,
      "##rf": 6700,
      "##vali": 6701,
      "##²": 6702,
      "Trust": 6703,
      "nation": 6704,
      "Nepal": 6705,
      "##care": 6706,
      "ud": 6707,
      "Productions": 6708,
      "Kiss": 6709,
      "kind": 6710,
      "MM": 6711,
      "Liberal": 6712,
      "##нка": 6713,
      "Short": 6714,
      "Princess": 6715,
      "могут": 6716,
      "Senate": 6717,
      "380": 6718,
      "##itu": 6719,
      "nearby": 6720,
      "Елга": 6721,
      "Herman": 6722,
      "Roll": 6723,
      "Rights": 6724,
      "indica": 6725,
      "promoted": 6726,
      "##ivi": 6727,
      "Forces": 6728,
      "били": 6729,
      "##нию": 6730,
      "Freedom": 6731,
      "Facebook": 6732,
      "##tten": 6733,
      "первой": 6734,
      "mere": 6735,
      "##bora": 6736,
      "Elena": 6737,
      "188": 6738,
      "Hart": 6739,
      "бир": 6740,
      "История": 6741,
      "percent": 6742,
      "моря": 6743,
      "будет": 6744,
      "Kenneth": 6745,
      "итал": 6746,
      "Bolivia": 6747,
      "Olivier": 6748,
      "managed": 6749,
      "Gregory": 6750,
      "maximum": 6751,
      "##hs": 6752,
      "##cima": 6753,
      "179": 6754,
      "##sco": 6755,
      "##вого": 6756,
      "##ън": 6757,
      "340": 6758,
      "##gens": 6759,
      "поселения": 6760,
      "method": 6761,
      "##ид": 6762,
      "search": 6763,
      "medieval": 6764,
      "##rati": 6765,
      "primarily": 6766,
      "num": 6767,
      "Greg": 6768,
      "##кая": 6769,
      "models": 6770,
      "Player": 6771,
      "##kla": 6772,
      "211": 6773,
      "##ome": 6774,
      "##iten": 6775,
      "Facts": 6776,
      "##nji": 6777,
      "ton": 6778,
      "региону": 6779,
      "музей": 6780,
      "ll": 6781,
      "##aki": 6782,
      "##ioni": 6783,
      "techniques": 6784,
      "178": 6785,
      "стране": 6786,
      "171": 6787,
      "##жения": 6788,
      "females": 6789,
      "##bla": 6790,
      "images": 6791,
      "Test": 6792,
      "likely": 6793,
      "##gent": 6794,
      "##js": 6795,
      "бы": 6796,
      "183": 6797,
      "##dale": 6798,
      "IATA": 6799,
      "ships": 6800,
      "Turkey": 6801,
      "##лни": 6802,
      "193": 6803,
      "##ated": 6804,
      "animals": 6805,
      "##ible": 6806,
      "##com": 6807,
      "exterior": 6808,
      "181": 6809,
      "##ulo": 6810,
      "arter": 6811,
      "##rca": 6812,
      "NY": 6813,
      "##нын": 6814,
      "1785": 6815,
      "ID": 6816,
      "crime": 6817,
      "SP": 6818,
      "wing": 6819,
      "##bon": 6820,
      "Leonardo": 6821,
      "##owi": 6822,
      "##лна": 6823,
      "Tanzania": 6824,
      "Norway": 6825,
      "arrived": 6826,
      "##ены": 6827,
      "wanted": 6828,
      "пункты": 6829,
      "##ants": 6830,
      "alternative": 6831,
      "разом": 6832,
      "Commonwealth": 6833,
      "##дер": 6834,
      "origin": 6835,
      "##rno": 6836,
      "Rebecca": 6837,
      "Bologna": 6838,
      "1776": 6839,
      "##вания": 6840,
      "##eel": 6841,
      "duc": 6842,
      "##ther": 6843,
      "highly": 6844,
      "число": 6845,
      "дня": 6846,
      "commerce": 6847,
      "appear": 6848,
      "Alla": 6849,
      "##20": 6850,
      "Од": 6851,
      "Jonas": 6852,
      "journalist": 6853,
      "##ери": 6854,
      "##vent": 6855,
      "##oo": 6856,
      "184": 6857,
      "Venezia": 6858,
      "Bond": 6859,
      "executive": 6860,
      "catalog": 6861,
      "Happy": 6862,
      "trains": 6863,
      "##Д": 6864,
      "поселений": 6865,
      "##зия": 6866,
      "коммуна": 6867,
      "##тся": 6868,
      "Local": 6869,
      "Ice": 6870,
      "##rol": 6871,
      "Source": 6872,
      "Fantasy": 6873,
      "##ниот": 6874,
      "##хи": 6875,
      "##nation": 6876,
      "Birmingham": 6877,
      "Lucky": 6878,
      "222": 6879,
      "passage": 6880,
      "##mark": 6881,
      "##шего": 6882,
      "cancer": 6883,
      "##gis": 6884,
      "##nsi": 6885,
      "##bol": 6886,
      "207": 6887,
      "Allah": 6888,
      "##zon": 6889,
      "performances": 6890,
      "platform": 6891,
      "sob": 6892,
      "образования": 6893,
      "Publishers": 6894,
      "174": 6895,
      "Tot": 6896,
      "школу": 6897,
      "Race": 6898,
      "тыс": 6899,
      "##par": 6900,
      "Gene": 6901,
      "##лно": 6902,
      "tat": 6903,
      "Alta": 6904,
      "Oh": 6905,
      "Petersburg": 6906,
      "FK": 6907,
      "saying": 6908,
      "Mind": 6909,
      "Turkish": 6910,
      "##pos": 6911,
      "173": 6912,
      "1960s": 6913,
      "Ain": 6914,
      "partner": 6915,
      "founder": 6916,
      "##ях": 6917,
      "1990s": 6918,
      "Wind": 6919,
      "##lare": 6920,
      "##tera": 6921,
      "деген": 6922,
      "школы": 6923,
      "projects": 6924,
      "197": 6925,
      "Javier": 6926,
      "crisis": 6927,
      "prominent": 6928,
      "сезоне": 6929,
      "клуба": 6930,
      "Supreme": 6931,
      "bon": 6932,
      "Klein": 6933,
      "##fte": 6934,
      "##lls": 6935,
      "##chu": 6936,
      "##dora": 6937,
      "##ffer": 6938,
      "Aircraft": 6939,
      "##нде": 6940,
      "##alt": 6941,
      "physical": 6942,
      "Senior": 6943,
      "appearances": 6944,
      "песни": 6945,
      "prej": 6946,
      "игры": 6947,
      "Upper": 6948,
      "партии": 6949,
      "Marx": 6950,
      "Clarke": 6951,
      "команды": 6952,
      "Орден": 6953,
      "ina": 6954,
      "Luna": 6955,
      "##yar": 6956,
      "##eron": 6957,
      "Heaven": 6958,
      "Uni": 6959,
      "Ted": 6960,
      "Member": 6961,
      "knowledge": 6962,
      "inside": 6963,
      "##erer": 6964,
      "Swiss": 6965,
      "сельских": 6966,
      "##льные": 6967,
      "AD": 6968,
      "##nau": 6969,
      "Price": 6970,
      "членом": 6971,
      "ju": 6972,
      "бути": 6973,
      "##ём": 6974,
      "Bowl": 6975,
      "##рна": 6976,
      "extension": 6977,
      "conta": 6978,
      "Xbox": 6979,
      "##ining": 6980,
      "##ючи": 6981,
      "према": 6982,
      "Jose": 6983,
      "##asa": 6984,
      "SR": 6985,
      "##ovat": 6986,
      "edu": 6987,
      "##inu": 6988,
      "wi": 6989,
      "Rangers": 6990,
      "брат": 6991,
      "##fort": 6992,
      "##нен": 6993,
      "card": 6994,
      "SE": 6995,
      "Carol": 6996,
      "Common": 6997,
      "approach": 6998,
      "literature": 6999,
      "Wu": 7000,
      "Once": 7001,
      "Creative": 7002,
      "potential": 7003,
      "Sara": 7004,
      "##ход": 7005,
      "##rze": 7006,
      "##tung": 7007,
      "capacity": 7008,
      "Отечественной": 7009,
      "gun": 7010,
      "Soc": 7011,
      "Той": 7012,
      "Pete": 7013,
      "Friends": 7014,
      "Manhattan": 7015,
      "северо": 7016,
      "Vila": 7017,
      "Falls": 7018,
      "Reserve": 7019,
      "##pta": 7020,
      "rules": 7021,
      "##uni": 7022,
      "revealed": 7023,
      "formal": 7024,
      "##ery": 7025,
      "aide": 7026,
      "начал": 7027,
      "sole": 7028,
      "480": 7029,
      "##эл": 7030,
      "##уд": 7031,
      "Amy": 7032,
      "eri": 7033,
      "Julian": 7034,
      "commonly": 7035,
      "стороны": 7036,
      "часу": 7037,
      "РСФСР": 7038,
      "##but": 7039,
      "promotion": 7040,
      "##eto": 7041,
      "Season": 7042,
      "##nă": 7043,
      "cells": 7044,
      "##ode": 7045,
      "##zne": 7046,
      "library": 7047,
      "positions": 7048,
      "нового": 7049,
      "Grund": 7050,
      "transferred": 7051,
      "materials": 7052,
      "tree": 7053,
      "focus": 7054,
      "##ьный": 7055,
      "##ето": 7056,
      "file": 7057,
      "account": 7058,
      "##oka": 7059,
      "##eet": 7060,
      "юго": 7061,
      "bases": 7062,
      "Как": 7063,
      "Each": 7064,
      "187": 7065,
      "##rov": 7066,
      "longitud": 7067,
      "##zan": 7068,
      "Notes": 7069,
      "##gle": 7070,
      "OF": 7071,
      "##iad": 7072,
      "Landes": 7073,
      "poor": 7074,
      "##ющие": 7075,
      "fare": 7076,
      "blue": 7077,
      "5th": 7078,
      "Malta": 7079,
      "##ура": 7080,
      "если": 7081,
      "Auto": 7082,
      "meet": 7083,
      "##ству": 7084,
      "Toledo": 7085,
      "##uden": 7086,
      "probably": 7087,
      "Florence": 7088,
      "сайт": 7089,
      "##вна": 7090,
      "Rain": 7091,
      "officially": 7092,
      "186": 7093,
      "scientific": 7094,
      "##lma": 7095,
      "Change": 7096,
      "forward": 7097,
      "smaller": 7098,
      "##nium": 7099,
      "##ир": 7100,
      "##stone": 7101,
      "##sha": 7102,
      "Dog": 7103,
      "Pod": 7104,
      "green": 7105,
      "##льный": 7106,
      "soldiers": 7107,
      "SPD": 7108,
      "Through": 7109,
      "build": 7110,
      "Nash": 7111,
      "##лена": 7112,
      "##ания": 7113,
      "##тки": 7114,
      "urban": 7115,
      "##шие": 7116,
      "Chapter": 7117,
      "Sci": 7118,
      "221": 7119,
      "dedicated": 7120,
      "Stein": 7121,
      "199": 7122,
      "Halle": 7123,
      "density": 7124,
      "Musical": 7125,
      "##ln": 7126,
      "##nova": 7127,
      "designated": 7128,
      "Ses": 7129,
      "##lda": 7130,
      "pass": 7131,
      "silver": 7132,
      "##рон": 7133,
      "1100": 7134,
      "Madison": 7135,
      "renamed": 7136,
      "209": 7137,
      "Heinz": 7138,
      "##шен": 7139,
      "Generation": 7140,
      "firm": 7141,
      "Pink": 7142,
      "Rogers": 7143,
      "##enta": 7144,
      "##лина": 7145,
      "except": 7146,
      "Bahn": 7147,
      "Франции": 7148,
      "##ray": 7149,
      "##ever": 7150,
      "divided": 7151,
      "##km": 7152,
      "awards": 7153,
      "##рат": 7154,
      "vis": 7155,
      "198": 7156,
      "lac": 7157,
      "Liu": 7158,
      "dead": 7159,
      "этих": 7160,
      "pressure": 7161,
      "1786": 7162,
      "brand": 7163,
      "Sullivan": 7164,
      "##рд": 7165,
      "1770": 7166,
      "Persian": 7167,
      "##con": 7168,
      "Right": 7169,
      "Off": 7170,
      "pou": 7171,
      "Село": 7172,
      "группа": 7173,
      "##rah": 7174,
      "sons": 7175,
      "##рии": 7176,
      "council": 7177,
      "Mobile": 7178,
      "temperature": 7179,
      "expression": 7180,
      "##tit": 7181,
      "solar": 7182,
      "Це": 7183,
      "collaboration": 7184,
      "Where": 7185,
      "jih": 7186,
      "##щим": 7187,
      "1750": 7188,
      "189": 7189,
      "241": 7190,
      "##стан": 7191,
      "ордена": 7192,
      "terminal": 7193,
      "Call": 7194,
      "moving": 7195,
      "ibi": 7196,
      "компании": 7197,
      "училище": 7198,
      "grave": 7199,
      "организации": 7200,
      "flight": 7201,
      "officers": 7202,
      "Башкортостан": 7203,
      "lack": 7204,
      "Christine": 7205,
      "quickly": 7206,
      "travel": 7207,
      "sets": 7208,
      "ability": 7209,
      "Под": 7210,
      "ig": 7211,
      "Miles": 7212,
      "episodes": 7213,
      "директор": 7214,
      "2020": 7215,
      "links": 7216,
      "##mai": 7217,
      "Executive": 7218,
      "191": 7219,
      "grew": 7220,
      "Julio": 7221,
      "Европы": 7222,
      "##isti": 7223,
      "titled": 7224,
      "либо": 7225,
      "Mother": 7226,
      "trial": 7227,
      "job": 7228,
      "##сем": 7229,
      "Cinema": 7230,
      "##tif": 7231,
      "##аны": 7232,
      "lane": 7233,
      "gut": 7234,
      "##ave": 7235,
      "Abdul": 7236,
      "##ense": 7237,
      "##ьного": 7238,
      "Был": 7239,
      "unde": 7240,
      "Full": 7241,
      "##ецца": 7242,
      "Double": 7243,
      "##ица": 7244,
      "secret": 7245,
      "площадь": 7246,
      "##ован": 7247,
      "loc": 7248,
      "Evolution": 7249,
      "196": 7250,
      "Morning": 7251,
      "216": 7252,
      "moral": 7253,
      "Beck": 7254,
      "audio": 7255,
      "planeta": 7256,
      "Nga": 7257,
      "Heidelberg": 7258,
      "follows": 7259,
      "Text": 7260,
      "historic": 7261,
      "университет": 7262,
      "join": 7263,
      "жителей": 7264,
      "Punta": 7265,
      "XXI": 7266,
      "##нца": 7267,
      "округов": 7268,
      "##льная": 7269,
      "##cum": 7270,
      "##bou": 7271,
      "Jefferson": 7272,
      "Код": 7273,
      "един": 7274,
      "Peak": 7275,
      "Katalog": 7276,
      "conducted": 7277,
      "##рка": 7278,
      "mixed": 7279,
      "HC": 7280,
      "recently": 7281,
      "##ional": 7282,
      "пол": 7283,
      "##аш": 7284,
      "214": 7285,
      "##rim": 7286,
      "say": 7287,
      "academic": 7288,
      "Xavier": 7289,
      "често": 7290,
      "226": 7291,
      "ordered": 7292,
      "MHz": 7293,
      "becomes": 7294,
      "кг": 7295,
      "Wie": 7296,
      "##град": 7297,
      "являются": 7298,
      "needed": 7299,
      "Lang": 7300,
      "Cole": 7301,
      "ideas": 7302,
      "##uu": 7303,
      "drive": 7304,
      "пред": 7305,
      "Château": 7306,
      "540": 7307,
      "##sberg": 7308,
      "offers": 7309,
      "keep": 7310,
      "Beijing": 7311,
      "workers": 7312,
      "PR": 7313,
      "street": 7314,
      "##oti": 7315,
      "Parque": 7316,
      "Bros": 7317,
      "бер": 7318,
      "Dos": 7319,
      "Owen": 7320,
      "менее": 7321,
      "##жен": 7322,
      "sales": 7323,
      "Lu": 7324,
      "Virgin": 7325,
      "floor": 7326,
      "##ttes": 7327,
      "share": 7328,
      "##eer": 7329,
      "Golf": 7330,
      "Pope": 7331,
      "##ыш": 7332,
      "науки": 7333,
      "Ankara": 7334,
      "thu": 7335,
      "Yale": 7336,
      "personnel": 7337,
      "introduction": 7338,
      "##mak": 7339,
      "Storm": 7340,
      "275": 7341,
      "removed": 7342,
      "serial": 7343,
      "##ване": 7344,
      "rare": 7345,
      "Luxembourg": 7346,
      "stone": 7347,
      "##nir": 7348,
      "defined": 7349,
      "Neue": 7350,
      "##тел": 7351,
      "##name": 7352,
      "Koch": 7353,
      "##eng": 7354,
      "Adrian": 7355,
      "Organization": 7356,
      "settlement": 7357,
      "##park": 7358,
      "родился": 7359,
      "232": 7360,
      "Command": 7361,
      "Hard": 7362,
      "Biology": 7363,
      "##kirche": 7364,
      "Rural": 7365,
      "##late": 7366,
      "royal": 7367,
      "Сергей": 7368,
      "coming": 7369,
      "Car": 7370,
      "##vie": 7371,
      "Portal": 7372,
      "сил": 7373,
      "parking": 7374,
      "##жение": 7375,
      "##нски": 7376,
      "Ruth": 7377,
      "Bass": 7378,
      "Pont": 7379,
      "Firenze": 7380,
      "lb": 7381,
      "310": 7382,
      "##нные": 7383,
      "BMW": 7384,
      "##вая": 7385,
      "Money": 7386,
      "##kle": 7387,
      "##tio": 7388,
      "настоящее": 7389,
      "roles": 7390,
      "##maal": 7391,
      "archaeological": 7392,
      "255": 7393,
      "Tierra": 7394,
      "immediately": 7395,
      "##rch": 7396,
      "crew": 7397,
      "када": 7398,
      "Stanford": 7399,
      "##nit": 7400,
      "##fan": 7401,
      "команда": 7402,
      "##dera": 7403,
      "Grey": 7404,
      "##вно": 7405,
      "Mercury": 7406,
      "##cada": 7407,
      "##enie": 7408,
      "автор": 7409,
      "##теля": 7410,
      "Wasser": 7411,
      "Cap": 7412,
      "intended": 7413,
      "amount": 7414,
      "##uce": 7415,
      "##ington": 7416,
      "##uka": 7417,
      "True": 7418,
      "Bangladesh": 7419,
      "##лася": 7420,
      "alone": 7421,
      "destroyed": 7422,
      "sg": 7423,
      "районы": 7424,
      "##ER": 7425,
      "Phillips": 7426,
      "##iant": 7427,
      "thi": 7428,
      "Mountains": 7429,
      "pi": 7430,
      "Кроме": 7431,
      "prince": 7432,
      "Великой": 7433,
      "##ages": 7434,
      "housing": 7435,
      "Mason": 7436,
      "IP": 7437,
      "##sit": 7438,
      "Performance": 7439,
      "split": 7440,
      "Clinton": 7441,
      "##ied": 7442,
      "##rang": 7443,
      "##ист": 7444,
      "370": 7445,
      "participated": 7446,
      "##vers": 7447,
      "Because": 7448,
      "##can": 7449,
      "leaders": 7450,
      "Constitution": 7451,
      "##ncy": 7452,
      "Religion": 7453,
      "Nos": 7454,
      "upper": 7455,
      "##aine": 7456,
      "##sce": 7457,
      "risk": 7458,
      "Shanghai": 7459,
      "Food": 7460,
      "##ической": 7461,
      "##sma": 7462,
      "Weekly": 7463,
      "##pers": 7464,
      "break": 7465,
      "Link": 7466,
      "##fy": 7467,
      "##uli": 7468,
      "Ecology": 7469,
      "operating": 7470,
      "тора": 7471,
      "##iza": 7472,
      "youth": 7473,
      "впервые": 7474,
      "##kker": 7475,
      "##cular": 7476,
      "##wang": 7477,
      "Suisse": 7478,
      "420": 7479,
      "##assa": 7480,
      "##tea": 7481,
      "##kur": 7482,
      "ряд": 7483,
      "actress": 7484,
      "Know": 7485,
      "Mozart": 7486,
      "dias": 7487,
      "reach": 7488,
      "Internationale": 7489,
      "pari": 7490,
      "##cta": 7491,
      "Got": 7492,
      "planned": 7493,
      "widely": 7494,
      "facilities": 7495,
      "##enberg": 7496,
      "##sman": 7497,
      "##тели": 7498,
      "Twitter": 7499,
      "##light": 7500,
      "acid": 7501,
      "Analysis": 7502,
      "##eld": 7503,
      "Industrial": 7504,
      "##lk": 7505,
      "##tors": 7506,
      "##etto": 7507,
      "##ством": 7508,
      "458": 7509,
      "Piano": 7510,
      "AM": 7511,
      "##bis": 7512,
      "instrument": 7513,
      "Tres": 7514,
      "Avery": 7515,
      "saint": 7516,
      "Aaron": 7517,
      "Case": 7518,
      "Sub": 7519,
      "Inter": 7520,
      "Hungarian": 7521,
      "Commissioner": 7522,
      "##aran": 7523,
      "##лата": 7524,
      "##ода": 7525,
      "Living": 7526,
      "##чески": 7527,
      "##zak": 7528,
      "поле": 7529,
      "actually": 7530,
      "##ея": 7531,
      "##ums": 7532,
      "##ents": 7533,
      "##rini": 7534,
      "238": 7535,
      "Handbook": 7536,
      "Paula": 7537,
      "Мария": 7538,
      "territory": 7539,
      "##ives": 7540,
      "Montana": 7541,
      "habitat": 7542,
      "districts": 7543,
      "owner": 7544,
      "223": 7545,
      "##вых": 7546,
      "Palazzo": 7547,
      "##тора": 7548,
      "giving": 7549,
      "Mali": 7550,
      "##ening": 7551,
      "Trophy": 7552,
      "##anti": 7553,
      "offer": 7554,
      "Tor": 7555,
      "Claire": 7556,
      "Zeitung": 7557,
      "Bang": 7558,
      "purchased": 7559,
      "tales": 7560,
      "Alt": 7561,
      "Joel": 7562,
      "Among": 7563,
      "Tal": 7564,
      "Armstrong": 7565,
      "serves": 7566,
      "nda": 7567,
      "серии": 7568,
      "Через": 7569,
      "тот": 7570,
      "##aro": 7571,
      "asl": 7572,
      "проект": 7573,
      "Shah": 7574,
      "vele": 7575,
      "194": 7576,
      "Spirit": 7577,
      "име": 7578,
      "##ька": 7579,
      "Bryan": 7580,
      "##tika": 7581,
      "1774": 7582,
      "leaves": 7583,
      "equipment": 7584,
      "##стер": 7585,
      "critical": 7586,
      "therefore": 7587,
      "1782": 7588,
      "Physics": 7589,
      "##мена": 7590,
      "mari": 7591,
      "команду": 7592,
      "##lama": 7593,
      "cura": 7594,
      "Plata": 7595,
      "Zhang": 7596,
      "CEO": 7597,
      "Weber": 7598,
      "##day": 7599,
      "visual": 7600,
      "Karen": 7601,
      "purpose": 7602,
      "##тон": 7603,
      "Москве": 7604,
      "ССР": 7605,
      "Projekt": 7606,
      "##овий": 7607,
      "берегу": 7608,
      "детей": 7609,
      "Dollar": 7610,
      "Away": 7611,
      "218": 7612,
      "Hungary": 7613,
      "cars": 7614,
      "##tag": 7615,
      "Mayo": 7616,
      "##тика": 7617,
      "Philosophy": 7618,
      "сборной": 7619,
      "males": 7620,
      "fellow": 7621,
      "conflict": 7622,
      "typically": 7623,
      "##bad": 7624,
      "Say": 7625,
      "##lna": 7626,
      "poet": 7627,
      "##esse": 7628,
      "ice": 7629,
      "губернии": 7630,
      "organized": 7631,
      "Nevada": 7632,
      "MC": 7633,
      "440": 7634,
      "votes": 7635,
      "branch": 7636,
      "Monaco": 7637,
      "mobile": 7638,
      "населённых": 7639,
      "composition": 7640,
      "Face": 7641,
      "felt": 7642,
      "institutions": 7643,
      "Св": 7644,
      "##ении": 7645,
      "##ьно": 7646,
      "##kse": 7647,
      "things": 7648,
      "институт": 7649,
      "Scientific": 7650,
      "##zte": 7651,
      "girl": 7652,
      "Derby": 7653,
      "CA": 7654,
      "Todd": 7655,
      "##zna": 7656,
      "birth": 7657,
      "condition": 7658,
      "Pat": 7659,
      "Ahmad": 7660,
      "Armenia": 7661,
      "Next": 7662,
      "adopted": 7663,
      "Symphony": 7664,
      "hour": 7665,
      "Bristol": 7666,
      "управления": 7667,
      "цей": 7668,
      "acqua": 7669,
      "##12": 7670,
      "##win": 7671,
      "количество": 7672,
      "##жно": 7673,
      "Granada": 7674,
      "##gina": 7675,
      "Ville": 7676,
      "##nad": 7677,
      "Rev": 7678,
      "##book": 7679,
      "deriva": 7680,
      "Why": 7681,
      "Colonel": 7682,
      "Norwegian": 7683,
      "rival": 7684,
      "oblast": 7685,
      "1772": 7686,
      "##ёр": 7687,
      "defeat": 7688,
      "assigned": 7689,
      "regime": 7690,
      "1778": 7691,
      "дома": 7692,
      "##wick": 7693,
      "женщин": 7694,
      "##ello": 7695,
      "##ote": 7696,
      "2500": 7697,
      "expansion": 7698,
      "Voice": 7699,
      "##vien": 7700,
      "Romano": 7701,
      "Fine": 7702,
      "Map": 7703,
      "Saturday": 7704,
      "##rul": 7705,
      "Have": 7706,
      "##nka": 7707,
      "Reed": 7708,
      "reviews": 7709,
      "Prof": 7710,
      "clear": 7711,
      "тим": 7712,
      "USD": 7713,
      "Kind": 7714,
      "##rri": 7715,
      "износи": 7716,
      "Член": 7717,
      "Печора": 7718,
      "##sun": 7719,
      "6th": 7720,
      "248": 7721,
      "Bible": 7722,
      "бас": 7723,
      "circuit": 7724,
      "provincial": 7725,
      "hen": 7726,
      "##сно": 7727,
      "Fisher": 7728,
      "mentioned": 7729,
      "gene": 7730,
      "blood": 7731,
      "effort": 7732,
      "structures": 7733,
      "образование": 7734,
      "continua": 7735,
      "##yev": 7736,
      "lake": 7737,
      "accepted": 7738,
      "Col": 7739,
      "Number": 7740,
      "vous": 7741,
      "Ferenc": 7742,
      "води": 7743,
      "850": 7744,
      "read": 7745,
      "tar": 7746,
      "##TA": 7747,
      "gives": 7748,
      "##rist": 7749,
      "1781": 7750,
      "pan": 7751,
      "foot": 7752,
      "##ations": 7753,
      "234": 7754,
      "##tad": 7755,
      "Viktor": 7756,
      "всё": 7757,
      "Rei": 7758,
      "mor": 7759,
      "##mist": 7760,
      "communication": 7761,
      "##Г": 7762,
      "teacher": 7763,
      "IF": 7764,
      "Panama": 7765,
      "##iser": 7766,
      "соли": 7767,
      "engineering": 7768,
      "##upa": 7769,
      "##ьных": 7770,
      "1777": 7771,
      "declared": 7772,
      "##ького": 7773,
      "##bot": 7774,
      "##нский": 7775,
      "##coli": 7776,
      "##ckt": 7777,
      "conference": 7778,
      "captured": 7779,
      "electric": 7780,
      "##tom": 7781,
      "231": 7782,
      "accident": 7783,
      "frac": 7784,
      "archive": 7785,
      "Thomson": 7786,
      "##bek": 7787,
      "##ES": 7788,
      "Cat": 7789,
      "genera": 7790,
      "##uses": 7791,
      "Ellen": 7792,
      "DE": 7793,
      "Americans": 7794,
      "Mesa": 7795,
      "##чне": 7796,
      "volumes": 7797,
      "##ws": 7798,
      "profit": 7799,
      "guide": 7800,
      "kar": 7801,
      "acting": 7802,
      "##ious": 7803,
      "basic": 7804,
      "Cold": 7805,
      "dark": 7806,
      "рода": 7807,
      "mini": 7808,
      "312": 7809,
      "имя": 7810,
      "##тин": 7811,
      "305": 7812,
      "sett": 7813,
      "alongside": 7814,
      "tip": 7815,
      "leadership": 7816,
      "роман": 7817,
      "253": 7818,
      "##oc": 7819,
      "Yemen": 7820,
      "##pora": 7821,
      "##usta": 7822,
      "##cza": 7823,
      "Late": 7824,
      "Documents": 7825,
      "Ya": 7826,
      "Германии": 7827,
      "чемпионата": 7828,
      "Greece": 7829,
      "look": 7830,
      "Oro": 7831,
      "document": 7832,
      "Hits": 7833,
      "Stage": 7834,
      "Diamond": 7835,
      "respectively": 7836,
      "##нных": 7837,
      "##tka": 7838,
      "Cao": 7839,
      "Andre": 7840,
      "##эй": 7841,
      "fell": 7842,
      "дела": 7843,
      "##вен": 7844,
      "##zor": 7845,
      "##oga": 7846,
      "isola": 7847,
      "Politics": 7848,
      "##ота": 7849,
      "super": 7850,
      "слова": 7851,
      "Istanbul": 7852,
      "##они": 7853,
      "Total": 7854,
      "gained": 7855,
      "Nielsen": 7856,
      "округ": 7857,
      "Drive": 7858,
      "Week": 7859,
      "пункт": 7860,
      "линии": 7861,
      "difficult": 7862,
      "mountain": 7863,
      "GP": 7864,
      "communities": 7865,
      "Superior": 7866,
      "relation": 7867,
      "##tne": 7868,
      "##rma": 7869,
      "##itt": 7870,
      "ranked": 7871,
      "##sey": 7872,
      "##pit": 7873,
      "cannot": 7874,
      "##эг": 7875,
      "##тен": 7876,
      "continues": 7877,
      "estimated": 7878,
      "Legend": 7879,
      "##сия": 7880,
      "##lea": 7881,
      "##uru": 7882,
      "##ани": 7883,
      "##yu": 7884,
      "##ческое": 7885,
      "##mbo": 7886,
      "жена": 7887,
      "Honda": 7888,
      "budget": 7889,
      "CC": 7890,
      "memory": 7891,
      "##lash": 7892,
      "##Н": 7893,
      "##чик": 7894,
      "fronte": 7895,
      "combined": 7896,
      "##lic": 7897,
      "##vant": 7898,
      "relative": 7899,
      "Convention": 7900,
      "болон": 7901,
      "##ition": 7902,
      "##lene": 7903,
      "Wells": 7904,
      "gh": 7905,
      "тысяч": 7906,
      "развития": 7907,
      "Ini": 7908,
      "239": 7909,
      "Raven": 7910,
      "largely": 7911,
      "Springs": 7912,
      "Foster": 7913,
      "##drag": 7914,
      "семье": 7915,
      "264": 7916,
      "desta": 7917,
      "227": 7918,
      "##Ф": 7919,
      "Schweizer": 7920,
      "Tel": 7921,
      "входит": 7922,
      "hip": 7923,
      "Portland": 7924,
      "Tales": 7925,
      "365": 7926,
      "##tha": 7927,
      "##kke": 7928,
      "contemporary": 7929,
      "375": 7930,
      "Devil": 7931,
      "Hunt": 7932,
      "hosted": 7933,
      "Birds": 7934,
      "##zny": 7935,
      "Она": 7936,
      "remain": 7937,
      "##dge": 7938,
      "agreement": 7939,
      "##erie": 7940,
      "проживали": 7941,
      "##xes": 7942,
      "Powell": 7943,
      "goes": 7944,
      "Ka": 7945,
      "##nter": 7946,
      "SV": 7947,
      "properties": 7948,
      "val": 7949,
      "ort": 7950,
      "Officer": 7951,
      "tax": 7952,
      "Eyes": 7953,
      "ro": 7954,
      "##ает": 7955,
      "Ad": 7956,
      "пр": 7957,
      "recognized": 7958,
      "signal": 7959,
      "##cano": 7960,
      "Venus": 7961,
      "##logi": 7962,
      "##sini": 7963,
      "aga": 7964,
      "weight": 7965,
      "outra": 7966,
      "roll": 7967,
      "265": 7968,
      "##room": 7969,
      "##ического": 7970,
      "mora": 7971,
      "Ahmed": 7972,
      "##ык": 7973,
      "yards": 7974,
      "Industry": 7975,
      "све": 7976,
      "Portuguese": 7977,
      "Kultur": 7978,
      "Flight": 7979,
      "Согласно": 7980,
      "гол": 7981,
      "growing": 7982,
      "govern": 7983,
      "agreed": 7984,
      "cea": 7985,
      "##oria": 7986,
      "1773": 7987,
      "##ots": 7988,
      "Советского": 7989,
      "presence": 7990,
      "generation": 7991,
      "##rdo": 7992,
      "Labour": 7993,
      "spread": 7994,
      "262": 7995,
      "##hou": 7996,
      "Syria": 7997,
      "Wing": 7998,
      "Crown": 7999,
      "##fat": 8000,
      "##телем": 8001,
      "Nat": 8002,
      "compared": 8003,
      "Tai": 8004,
      "Fiction": 8005,
      "##gra": 8006,
      "##elli": 8007,
      "Yves": 8008,
      "Work": 8009,
      "Regions": 8010,
      "228": 8011,
      "##wing": 8012,
      "##omo": 8013,
      "метр": 8014,
      "Curtis": 8015,
      "Chemical": 8016,
      "##amen": 8017,
      "##ира": 8018,
      "Карл": 8019,
      "politics": 8020,
      "Jessica": 8021,
      "520": 8022,
      "##mond": 8023,
      "joint": 8024,
      "мировой": 8025,
      "##oh": 8026,
      "##берг": 8027,
      "##board": 8028,
      "##nata": 8029,
      "jam": 8030,
      "Fair": 8031,
      "вновь": 8032,
      "mg": 8033,
      "##чный": 8034,
      "короля": 8035,
      "chose": 8036,
      "greater": 8037,
      "##eh": 8038,
      "reduced": 8039,
      "##iy": 8040,
      "243": 8041,
      "##uen": 8042,
      "comedy": 8043,
      "occurred": 8044,
      "##kers": 8045,
      "##fs": 8046,
      "resources": 8047,
      "##gger": 8048,
      "##rom": 8049,
      "##нки": 8050,
      "##dina": 8051,
      "##cato": 8052,
      "##fera": 8053,
      "##лено": 8054,
      "##elor": 8055,
      "##lav": 8056,
      "##щие": 8057,
      "##ders": 8058,
      "causes": 8059,
      "Commander": 8060,
      "participation": 8061,
      "negative": 8062,
      "##î": 8063,
      "justice": 8064,
      "Around": 8065,
      "Liebe": 8066,
      "Conrad": 8067,
      "Tree": 8068,
      "##тэй": 8069,
      "233": 8070,
      "Nei": 8071,
      "Cohen": 8072,
      "RAF": 8073,
      "##нал": 8074,
      "##шли": 8075,
      "Nazi": 8076,
      "##ации": 8077,
      "##цов": 8078,
      "Schneider": 8079,
      "325": 8080,
      "variable": 8081,
      "billion": 8082,
      "cycle": 8083,
      "245": 8084,
      "Denmark": 8085,
      "##пы": 8086,
      "lever": 8087,
      "души": 8088,
      "Kid": 8089,
      "Literature": 8090,
      "219": 8091,
      "чел": 8092,
      "Nie": 8093,
      "claims": 8094,
      "gain": 8095,
      "1760": 8096,
      "Tiger": 8097,
      "background": 8098,
      "Ridge": 8099,
      "##ugh": 8100,
      "nominated": 8101,
      "##cent": 8102,
      "##ё": 8103,
      "Soccer": 8104,
      "##скому": 8105,
      "##lane": 8106,
      "naval": 8107,
      "cal": 8108,
      "Norton": 8109,
      "driver": 8110,
      "resta": 8111,
      "paid": 8112,
      "313": 8113,
      "##hem": 8114,
      "Jung": 8115,
      "Stories": 8116,
      "##В": 8117,
      "##minister": 8118,
      "Hof": 8119,
      "1763": 8120,
      "Pearl": 8121,
      "##ief": 8122,
      "patients": 8123,
      "##star": 8124,
      "Helmut": 8125,
      "##чения": 8126,
      "expected": 8127,
      "draw": 8128,
      "##key": 8129,
      "winter": 8130,
      "Orlando": 8131,
      "##zek": 8132,
      "##yat": 8133,
      "Android": 8134,
      "##тай": 8135,
      "Buffalo": 8136,
      "острова": 8137,
      "##нага": 8138,
      "Серед": 8139,
      "Switzerland": 8140,
      "letters": 8141,
      "Коди": 8142,
      "##igh": 8143,
      "taught": 8144,
      "##alla": 8145,
      "статус": 8146,
      "##ond": 8147,
      "Ca": 8148,
      "##рта": 8149,
      "acres": 8150,
      "ven": 8151,
      "##ага": 8152,
      "трёх": 8153,
      "twenty": 8154,
      "spring": 8155,
      "##cate": 8156,
      "humans": 8157,
      "Stalin": 8158,
      "Native": 8159,
      "рамках": 8160,
      "##selt": 8161,
      "Sr": 8162,
      "applications": 8163,
      "environment": 8164,
      "audience": 8165,
      "secondary": 8166,
      "Bennett": 8167,
      "##zone": 8168,
      "Kosovo": 8169,
      "Server": 8170,
      "Josh": 8171,
      "295": 8172,
      "suffered": 8173,
      "bring": 8174,
      "хан": 8175,
      "##gre": 8176,
      "instruments": 8177,
      "simply": 8178,
      "colonial": 8179,
      "providing": 8180,
      "copies": 8181,
      "##indo": 8182,
      "expanded": 8183,
      "Defense": 8184,
      "306": 8185,
      "damage": 8186,
      "##tati": 8187,
      "identified": 8188,
      "##tog": 8189,
      "251": 8190,
      "##eris": 8191,
      "##ew": 8192,
      "Verde": 8193,
      "something": 8194,
      "##ops": 8195,
      "##шта": 8196,
      "##ким": 8197,
      "##рда": 8198,
      "##еля": 8199,
      "Beyond": 8200,
      "Match": 8201,
      "##лах": 8202,
      "##вич": 8203,
      "Nassau": 8204,
      "fly": 8205,
      "док": 8206,
      "Palmer": 8207,
      "Mine": 8208,
      "Ghost": 8209,
      "##ates": 8210,
      "Eo": 8211,
      "##чные": 8212,
      "Россия": 8213,
      "002": 8214,
      "Zero": 8215,
      "Romeo": 8216,
      "Jun": 8217,
      "link": 8218,
      "graf": 8219,
      "##naire": 8220,
      "##вка": 8221,
      "друга": 8222,
      "Glenn": 8223,
      "селе": 8224,
      "Thai": 8225,
      "Gloria": 8226,
      "Darwin": 8227,
      "##rts": 8228,
      "229": 8229,
      "друг": 8230,
      "ap": 8231,
      "ходе": 8232,
      "301": 8233,
      "##rman": 8234,
      "PTT": 8235,
      "fish": 8236,
      "prof": 8237,
      "##phone": 8238,
      "restaurant": 8239,
      "statue": 8240,
      "##vara": 8241,
      "##ео": 8242,
      "##фи": 8243,
      "статистика": 8244,
      "##pper": 8245,
      "beta": 8246,
      "##dro": 8247,
      "254": 8248,
      "Concert": 8249,
      "twice": 8250,
      "430": 8251,
      "304": 8252,
      "##git": 8253,
      "Basel": 8254,
      "Anti": 8255,
      "Ela": 8256,
      "parallel": 8257,
      "finish": 8258,
      "receive": 8259,
      "##cation": 8260,
      "Germain": 8261,
      "Article": 8262,
      "##orn": 8263,
      "##аз": 8264,
      "suit": 8265,
      "236": 8266,
      "Vera": 8267,
      "##ары": 8268,
      "##щая": 8269,
      "Hopkins": 8270,
      "Hai": 8271,
      "Dio": 8272,
      "Seoul": 8273,
      "##bang": 8274,
      "violence": 8275,
      "##нее": 8276,
      "Father": 8277,
      "Honor": 8278,
      "Почта": 8279,
      "сол": 8280,
      "больше": 8281,
      "hop": 8282,
      "architect": 8283,
      "которое": 8284,
      "хотя": 8285,
      "Stefano": 8286,
      "##tr": 8287,
      "Bois": 8288,
      "Intel": 8289,
      "Kai": 8290,
      "##ake": 8291,
      "int": 8292,
      "Tibet": 8293,
      "Solar": 8294,
      "Seu": 8295,
      "Track": 8296,
      "##нна": 8297,
      "covers": 8298,
      "410": 8299,
      "Companion": 8300,
      "##tics": 8301,
      "##zzo": 8302,
      "##stel": 8303,
      "Banks": 8304,
      "IOC": 8305,
      "##aw": 8306,
      "##ула": 8307,
      "hija": 8308,
      "facto": 8309,
      "coi": 8310,
      "246": 8311,
      "##dium": 8312,
      "##dita": 8313,
      "Training": 8314,
      "##aries": 8315,
      "usage": 8316,
      "многих": 8317,
      "begins": 8318,
      "Gil": 8319,
      "каде": 8320,
      "allows": 8321,
      "Then": 8322,
      "Origins": 8323,
      "Anno": 8324,
      "composer": 8325,
      "Bd": 8326,
      "##zki": 8327,
      "traffic": 8328,
      "attacks": 8329,
      "Uno": 8330,
      "Jews": 8331,
      "titles": 8332,
      "engineer": 8333,
      "outre": 8334,
      "minimum": 8335,
      "рр": 8336,
      "##rden": 8337,
      "hu": 8338,
      "##lov": 8339,
      "Room": 8340,
      "тут": 8341,
      "##ьний": 8342,
      "Belgium": 8343,
      "##ebb": 8344,
      "situated": 8345,
      "##inis": 8346,
      "Want": 8347,
      "##uca": 8348,
      "ныне": 8349,
      "Pascal": 8350,
      "249": 8351,
      "creation": 8352,
      "kept": 8353,
      "##iah": 8354,
      "Hero": 8355,
      "Authority": 8356,
      "terrain": 8357,
      "commission": 8358,
      "Arabic": 8359,
      "newly": 8360,
      "Беларуси": 8361,
      "UN": 8362,
      "Dawn": 8363,
      "Garcia": 8364,
      "книга": 8365,
      "Luc": 8366,
      "deep": 8367,
      "роботи": 8368,
      "Saudi": 8369,
      "Belle": 8370,
      "Tang": 8371,
      "Artist": 8372,
      "Chem": 8373,
      "reports": 8374,
      "Alba": 8375,
      "Nathan": 8376,
      "Globe": 8377,
      "resulted": 8378,
      "наиболее": 8379,
      "##ece": 8380,
      "existing": 8381,
      "Stan": 8382,
      "portion": 8383,
      "organizations": 8384,
      "theme": 8385,
      "эти": 8386,
      "towns": 8387,
      "Ал": 8388,
      "##att": 8389,
      "organ": 8390,
      "camera": 8391,
      "##stic": 8392,
      "Upon": 8393,
      "ла": 8394,
      "театр": 8395,
      "questions": 8396,
      "##щение": 8397,
      "языка": 8398,
      "##jt": 8399,
      "wall": 8400,
      "##ivos": 8401,
      "редактор": 8402,
      "##бар": 8403,
      "Hardy": 8404,
      "euros": 8405,
      "##uin": 8406,
      "##нг": 8407,
      "##eck": 8408,
      "Nina": 8409,
      "##чена": 8410,
      "272": 8411,
      "unes": 8412,
      "##vole": 8413,
      "Make": 8414,
      "Orient": 8415,
      "станции": 8416,
      "Advanced": 8417,
      "resulting": 8418,
      "Far": 8419,
      "##логии": 8420,
      "Patricia": 8421,
      "##alan": 8422,
      "ratio": 8423,
      "##ьная": 8424,
      "Guitar": 8425,
      "Fund": 8426,
      "piece": 8427,
      "buried": 8428,
      "##жна": 8429,
      "authority": 8430,
      "периода": 8431,
      "conte": 8432,
      "307": 8433,
      "ней": 8434,
      "sign": 8435,
      "description": 8436,
      "develop": 8437,
      "школе": 8438,
      "Vega": 8439,
      "##dek": 8440,
      "##tai": 8441,
      "orchestra": 8442,
      "Beautiful": 8443,
      "##лены": 8444,
      "1768": 8445,
      "Eugene": 8446,
      "##лем": 8447,
      "Making": 8448,
      "Франция": 8449,
      "applied": 8450,
      "##рок": 8451,
      "coup": 8452,
      "003": 8453,
      "ty": 8454,
      "invasion": 8455,
      "Private": 8456,
      "службу": 8457,
      "##лд": 8458,
      "effective": 8459,
      "visible": 8460,
      "##ои": 8461,
      "окончил": 8462,
      "seats": 8463,
      "##ься": 8464,
      "##the": 8465,
      "learning": 8466,
      "boy": 8467,
      "Pa": 8468,
      "##tge": 8469,
      "##rja": 8470,
      "работу": 8471,
      "Nice": 8472,
      "painting": 8473,
      "первого": 8474,
      "reality": 8475,
      "lieutenant": 8476,
      "brigade": 8477,
      "doctor": 8478,
      "##mmer": 8479,
      "iTunes": 8480,
      "##него": 8481,
      "##iker": 8482,
      "IT": 8483,
      "своё": 8484,
      "guest": 8485,
      "##jk": 8486,
      "gener": 8487,
      "granted": 8488,
      "войск": 8489,
      "Oblast": 8490,
      "info": 8491,
      "marked": 8492,
      "##osta": 8493,
      "connected": 8494,
      "##ости": 8495,
      "257": 8496,
      "##tern": 8497,
      "##jia": 8498,
      "##ffe": 8499,
      "##mb": 8500,
      "##вать": 8501,
      "##halt": 8502,
      "Александра": 8503,
      "##nam": 8504,
      "tells": 8505,
      "##ью": 8506,
      "surrounding": 8507,
      "639": 8508,
      "различных": 8509,
      "necessary": 8510,
      "Honduras": 8511,
      "Edge": 8512,
      "MW": 8513,
      "##uel": 8514,
      "полка": 8515,
      "##zation": 8516,
      "водного": 8517,
      "Range": 8518,
      "inspired": 8519,
      "##mic": 8520,
      "##gge": 8521,
      "Michelle": 8522,
      "##уна": 8523,
      "arc": 8524,
      "##ады": 8525,
      "advanced": 8526,
      "##hur": 8527,
      "дивизии": 8528,
      "Jeremy": 8529,
      "общества": 8530,
      "##nds": 8531,
      "##dica": 8532,
      "##тка": 8533,
      "271": 8534,
      "##gat": 8535,
      "courses": 8536,
      "другим": 8537,
      "radar": 8538,
      "Comme": 8539,
      "центром": 8540,
      "safety": 8541,
      "##pon": 8542,
      "Berger": 8543,
      "##IN": 8544,
      "Academic": 8545,
      "##qi": 8546,
      "##arten": 8547,
      "након": 8548,
      "##ёв": 8549,
      "##SA": 8550,
      "##ический": 8551,
      "Lion": 8552,
      "Dana": 8553,
      "ranking": 8554,
      "##уда": 8555,
      "tried": 8556,
      "Que": 8557,
      "##ома": 8558,
      "##down": 8559,
      "Sala": 8560,
      "sq": 8561,
      "море": 8562,
      "303": 8563,
      "bala": 8564,
      "##gni": 8565,
      "Start": 8566,
      "237": 8567,
      "##шу": 8568,
      "частности": 8569,
      "completely": 8570,
      "##illo": 8571,
      "##лений": 8572,
      "кар": 8573,
      "##tory": 8574,
      "##verse": 8575,
      "##chy": 8576,
      "Continental": 8577,
      "Terre": 8578,
      "lau": 8579,
      "MP": 8580,
      "ray": 8581,
      "Montgomery": 8582,
      "fully": 8583,
      "foto": 8584,
      "Vista": 8585,
      "Omar": 8586,
      "disc": 8587,
      "##anu": 8588,
      "Adelaide": 8589,
      "##нения": 8590,
      "vehicles": 8591,
      "yard": 8592,
      "Maritime": 8593,
      "block": 8594,
      "333": 8595,
      "rio": 8596,
      "multimedia": 8597,
      "containing": 8598,
      "##ёл": 8599,
      "FBI": 8600,
      "##ята": 8601,
      "sides": 8602,
      "жизнь": 8603,
      "кино": 8604,
      "##rane": 8605,
      "MA": 8606,
      "wins": 8607,
      "UCI": 8608,
      "##gno": 8609,
      "teaching": 8610,
      "таким": 8611,
      "Liberty": 8612,
      "##iter": 8613,
      "460": 8614,
      "242": 8615,
      "клубу": 8616,
      "##bing": 8617,
      "unknown": 8618,
      "##лий": 8619,
      "##щий": 8620,
      "решение": 8621,
      "##nten": 8622,
      "##ender": 8623,
      "Tam": 8624,
      "##hme": 8625,
      "##рен": 8626,
      "1779": 8627,
      "obtained": 8628,
      "confirmed": 8629,
      "##gren": 8630,
      "Munich": 8631,
      "axe": 8632,
      "начин": 8633,
      "Petra": 8634,
      "история": 8635,
      "core": 8636,
      "EC": 8637,
      "здесь": 8638,
      "Tennis": 8639,
      "##mans": 8640,
      "Ел": 8641,
      "1740": 8642,
      "288": 8643,
      "vehicle": 8644,
      "##lius": 8645,
      "talent": 8646,
      "methods": 8647,
      "президент": 8648,
      "ore": 8649,
      "edited": 8650,
      "Communications": 8651,
      "##ям": 8652,
      "основном": 8653,
      "##лок": 8654,
      "Иванович": 8655,
      "##кие": 8656,
      "injury": 8657,
      "##ware": 8658,
      "claim": 8659,
      "армия": 8660,
      "##cono": 8661,
      "кеше": 8662,
      "Steel": 8663,
      "Архив": 8664,
      "EMI": 8665,
      "##ares": 8666,
      "АО": 8667,
      "younger": 8668,
      "showed": 8669,
      "##тик": 8670,
      "##vez": 8671,
      "##ание": 8672,
      "##ава": 8673,
      "##нат": 8674,
      "##dle": 8675,
      "##nca": 8676,
      "##meter": 8677,
      "285": 8678,
      "##jah": 8679,
      "noto": 8680,
      "##eks": 8681,
      "Jamie": 8682,
      "Policy": 8683,
      "Hay": 8684,
      "Search": 8685,
      "##ight": 8686,
      "##cm": 8687,
      "Becker": 8688,
      "fighting": 8689,
      "войска": 8690,
      "visit": 8691,
      "##lini": 8692,
      "Branch": 8693,
      "mine": 8694,
      "translation": 8695,
      "##mission": 8696,
      "##чено": 8697,
      "##chia": 8698,
      "Evil": 8699,
      "##жу": 8700,
      "Universe": 8701,
      "##av": 8702,
      "работа": 8703,
      "Still": 8704,
      "economy": 8705,
      "##eon": 8706,
      "##quet": 8707,
      "Us": 8708,
      "SD": 8709,
      "244": 8710,
      "Testament": 8711,
      "##awa": 8712,
      "Chan": 8713,
      "labor": 8714,
      "Cannes": 8715,
      "Bo": 8716,
      "##tand": 8717,
      "oldest": 8718,
      "chairman": 8719,
      "мае": 8720,
      "Tale": 8721,
      "Flying": 8722,
      "committee": 8723,
      "daily": 8724,
      "CV": 8725,
      "pair": 8726,
      "lle": 8727,
      "##yl": 8728,
      "household": 8729,
      "##зан": 8730,
      "##olt": 8731,
      "Двина": 8732,
      "18th": 8733,
      "метров": 8734,
      "храм": 8735,
      "suggested": 8736,
      "художник": 8737,
      "Grove": 8738,
      "##unta": 8739,
      "рок": 8740,
      "##оя": 8741,
      "##vati": 8742,
      "##bild": 8743,
      "commander": 8744,
      "командир": 8745,
      "Они": 8746,
      "##шения": 8747,
      "instrumental": 8748,
      "exchange": 8749,
      "Alpha": 8750,
      "##iona": 8751,
      "административно": 8752,
      "dates": 8753,
      "##чная": 8754,
      "Forbes": 8755,
      "315": 8756,
      "bor": 8757,
      "officials": 8758,
      "##И": 8759,
      "forest": 8760,
      "##того": 8761,
      "WWW": 8762,
      "champions": 8763,
      "Ex": 8764,
      "Hubert": 8765,
      "##rich": 8766,
      "##odu": 8767,
      "##лана": 8768,
      "##cted": 8769,
      "Roosevelt": 8770,
      "городского": 8771,
      "facility": 8772,
      "Too": 8773,
      "##анд": 8774,
      "Interview": 8775,
      "Tallinn": 8776,
      "unu": 8777,
      "##agi": 8778,
      "##cre": 8779,
      "tower": 8780,
      "ин": 8781,
      "##дары": 8782,
      "##mate": 8783,
      "Horse": 8784,
      "##enda": 8785,
      "arrive": 8786,
      "losing": 8787,
      "Lower": 8788,
      "##чным": 8789,
      "##rita": 8790,
      "calle": 8791,
      "##iat": 8792,
      "variant": 8793,
      "girls": 8794,
      "documentary": 8795,
      "##col": 8796,
      "Choice": 8797,
      "Til": 8798,
      "##tsi": 8799,
      "seo": 8800,
      "Arabia": 8801,
      "Shadow": 8802,
      "##low": 8803,
      "Входит": 8804,
      "Chase": 8805,
      "##ened": 8806,
      "beat": 8807,
      "think": 8808,
      "##нс": 8809,
      "##put": 8810,
      "виде": 8811,
      "Deutsch": 8812,
      "месте": 8813,
      "##льна": 8814,
      "chance": 8815,
      "##ulation": 8816,
      "Ellis": 8817,
      "matter": 8818,
      "rank": 8819,
      "historian": 8820,
      "stadium": 8821,
      "tie": 8822,
      "programming": 8823,
      "##iae": 8824,
      "##hia": 8825,
      "dis": 8826,
      "hits": 8827,
      "hands": 8828,
      "##ема": 8829,
      "Родился": 8830,
      "##icas": 8831,
      "WTA": 8832,
      "избран": 8833,
      "lit": 8834,
      "Rich": 8835,
      "reason": 8836,
      "dollars": 8837,
      "DL": 8838,
      "Giro": 8839,
      "Ruiz": 8840,
      "Duncan": 8841,
      "##glia": 8842,
      "Axel": 8843,
      "fundamental": 8844,
      "Петербург": 8845,
      "##dum": 8846,
      "F1": 8847,
      "Amazon": 8848,
      "GT": 8849,
      "mental": 8850,
      "247": 8851,
      "базе": 8852,
      "chosen": 8853,
      "порт": 8854,
      "routes": 8855,
      "##sio": 8856,
      "incident": 8857,
      "Eagle": 8858,
      "##жных": 8859,
      "##iment": 8860,
      "закон": 8861,
      "theatre": 8862,
      "фильма": 8863,
      "Nama": 8864,
      "##gor": 8865,
      "Trek": 8866,
      "lyrics": 8867,
      "##тво": 8868,
      "##sts": 8869,
      "##cc": 8870,
      "##orum": 8871,
      "##rla": 8872,
      "##чну": 8873,
      "Forever": 8874,
      "Jupiter": 8875,
      "##azi": 8876,
      "награда": 8877,
      "1660": 8878,
      "Mk": 8879,
      "406": 8880,
      "follow": 8881,
      "##ph": 8882,
      "1648": 8883,
      "Lambert": 8884,
      "VL": 8885,
      "Vor": 8886,
      "peace": 8887,
      "DS": 8888,
      "Европа": 8889,
      "##graphy": 8890,
      "##dil": 8891,
      "ove": 8892,
      "##nais": 8893,
      "##sso": 8894,
      "succeeded": 8895,
      "случае": 8896,
      "##kis": 8897,
      "структура": 8898,
      "Angels": 8899,
      "##чной": 8900,
      "Palma": 8901,
      "Even": 8902,
      "##iding": 8903,
      "некоторых": 8904,
      "Ин": 8905,
      "##anje": 8906,
      "ama": 8907,
      "arms": 8908,
      "Kids": 8909,
      "Snow": 8910,
      "советский": 8911,
      "captain": 8912,
      "laws": 8913,
      "Jos": 8914,
      "##rge": 8915,
      "Professional": 8916,
      "##isse": 8917,
      "рос": 8918,
      "xe": 8919,
      "##graph": 8920,
      "display": 8921,
      "Horn": 8922,
      "##tim": 8923,
      "Porter": 8924,
      "Fast": 8925,
      "##cens": 8926,
      "##ovo": 8927,
      "##itate": 8928,
      "чемпионате": 8929,
      "##von": 8930,
      "##rent": 8931,
      "bonus": 8932,
      "##cci": 8933,
      "medicine": 8934,
      "##сэн": 8935,
      "##ith": 8936,
      "amateur": 8937,
      "mix": 8938,
      "Animal": 8939,
      "Gulf": 8940,
      "##ogi": 8941,
      "headquarters": 8942,
      "Ja": 8943,
      "dele": 8944,
      "##ент": 8945,
      "##asta": 8946,
      "##colo": 8947,
      "entitled": 8948,
      "functions": 8949,
      "holds": 8950,
      "Cristina": 8951,
      "Fiat": 8952,
      "##yes": 8953,
      "Min": 8954,
      "achieved": 8955,
      "Stil": 8956,
      "Борис": 8957,
      "##рь": 8958,
      "##rti": 8959,
      "##сын": 8960,
      "authorities": 8961,
      "фран": 8962,
      "##rades": 8963,
      "Circle": 8964,
      "Titan": 8965,
      "Jin": 8966,
      "390": 8967,
      "##ску": 8968,
      "медаль": 8969,
      "##лады": 8970,
      "quarter": 8971,
      "enda": 8972,
      "aa": 8973,
      "Nu": 8974,
      "##oan": 8975,
      "Ottoman": 8976,
      "inhabitants": 8977,
      "##vei": 8978,
      "Obama": 8979,
      "##дал": 8980,
      "allowing": 8981,
      "Haut": 8982,
      "1950s": 8983,
      "##vni": 8984,
      "Broadcasting": 8985,
      "своим": 8986,
      "Ada": 8987,
      "zero": 8988,
      "##ssi": 8989,
      "Regina": 8990,
      "depi": 8991,
      "adaptation": 8992,
      "passes": 8993,
      "##sne": 8994,
      "##рак": 8995,
      "Sudan": 8996,
      "Market": 8997,
      "Vid": 8998,
      "273": 8999,
      "##eran": 9000,
      "Circuit": 9001,
      "деятельности": 9002,
      "##fier": 9003,
      "империи": 9004,
      "##sley": 9005,
      "Автор": 9006,
      "relatively": 9007,
      "asp": 9008,
      "sum": 9009,
      "Without": 9010,
      "##сии": 9011,
      "Israeli": 9012,
      "draft": 9013,
      "##стю": 9014,
      "Russie": 9015,
      "##аний": 9016,
      "fields": 9017,
      "Crystal": 9018,
      "airport": 9019,
      "escala": 9020,
      "още": 9021,
      "люди": 9022,
      "противника": 9023,
      "Simone": 9024,
      "266": 9025,
      "ann": 9026,
      "##шин": 9027,
      "##aca": 9028,
      "Як": 9029,
      "##vna": 9030,
      "Section": 9031,
      "concerts": 9032,
      "##нный": 9033,
      "solution": 9034,
      "spot": 9035,
      "Movement": 9036,
      "utiliza": 9037,
      "семейство": 9038,
      "##nces": 9039,
      "Flash": 9040,
      "##чко": 9041,
      "##quer": 9042,
      "Christina": 9043,
      "##rino": 9044,
      "Chang": 9045,
      "##ест": 9046,
      "точки": 9047,
      "323": 9048,
      "coll": 9049,
      "identity": 9050,
      "##aco": 9051,
      "Aviation": 9052,
      "target": 9053,
      "улица": 9054,
      "##cera": 9055,
      "beyond": 9056,
      "Все": 9057,
      "##ьна": 9058,
      "Eye": 9059,
      "##ex": 9060,
      "268": 9061,
      "##ину": 9062,
      "##°C": 9063,
      "##нер": 9064,
      "absence": 9065,
      "##sak": 9066,
      "Але": 9067,
      "Several": 9068,
      "steel": 9069,
      "##евич": 9070,
      "263": 9071,
      "##вета": 9072,
      "imperial": 9073,
      "302": 9074,
      "needs": 9075,
      "Hung": 9076,
      "Walk": 9077,
      "Pavel": 9078,
      "##euse": 9079,
      "nº": 9080,
      "occupied": 9081,
      "Chairman": 9082,
      "##rot": 9083,
      "Mill": 9084,
      "##ladi": 9085,
      "##леге": 9086,
      "##eter": 9087,
      "Novo": 9088,
      "Adventures": 9089,
      "##bah": 9090,
      "Beat": 9091,
      "tank": 9092,
      "6000": 9093,
      "##няя": 9094,
      "trees": 9095,
      "##ову": 9096,
      "##сов": 9097,
      "Ghana": 9098,
      "write": 9099,
      "##pak": 9100,
      "Berry": 9101,
      "Draft": 9102,
      "другой": 9103,
      "роли": 9104,
      "rise": 9105,
      "##nig": 9106,
      "contributions": 9107,
      "##cket": 9108,
      "1771": 9109,
      "fauna": 9110,
      "##rine": 9111,
      "zom": 9112,
      "Maya": 9113,
      "Return": 9114,
      "Guard": 9115,
      "286": 9116,
      "Dreams": 9117,
      "##ined": 9118,
      "##ites": 9119,
      "pt": 9120,
      "morning": 9121,
      "arma": 9122,
      "brothers": 9123,
      "domain": 9124,
      "Tribunal": 9125,
      "Manager": 9126,
      "st": 9127,
      "bands": 9128,
      "quant": 9129,
      "##ием": 9130,
      "##зии": 9131,
      "governor": 9132,
      "рада": 9133,
      "Igor": 9134,
      "Low": 9135,
      "282": 9136,
      "Economics": 9137,
      "Azerbaijan": 9138,
      "issu": 9139,
      "1766": 9140,
      "##гер": 9141,
      "Laguna": 9142,
      "Италия": 9143,
      "ГИ": 9144,
      "##tine": 9145,
      "fond": 9146,
      "государственного": 9147,
      "missions": 9148,
      "perform": 9149,
      "##aci": 9150,
      "1769": 9151,
      "Crazy": 9152,
      "##ично": 9153,
      "frequently": 9154,
      "##50": 9155,
      "##sca": 9156,
      "276": 9157,
      "Hann": 9158,
      "Intelligence": 9159,
      "len": 9160,
      "conde": 9161,
      "нескольких": 9162,
      "Travel": 9163,
      "##кт": 9164,
      "bought": 9165,
      "##uran": 9166,
      "##xt": 9167,
      "277": 9168,
      "Brand": 9169,
      "Olga": 9170,
      "свого": 9171,
      "##ID": 9172,
      "clan": 9173,
      "##gir": 9174,
      "Block": 9175,
      "sixth": 9176,
      "supply": 9177,
      "##sor": 9178,
      "##рин": 9179,
      "##pol": 9180,
      "274": 9181,
      "##pare": 9182,
      "occupation": 9183,
      "Albania": 9184,
      "1765": 9185,
      "игра": 9186,
      "Ki": 9187,
      "respect": 9188,
      "титул": 9189,
      "Seventh": 9190,
      "liberal": 9191,
      "Mass": 9192,
      "dur": 9193,
      "##pada": 9194,
      "Things": 9195,
      "##тина": 9196,
      "Phi": 9197,
      "##nato": 9198,
      "Toyota": 9199,
      "##enes": 9200,
      "Paradise": 9201,
      "Pe": 9202,
      "holding": 9203,
      "Woods": 9204,
      "АН": 9205,
      "##enburg": 9206,
      "##лып": 9207,
      "settled": 9208,
      "Staff": 9209,
      "Mayer": 9210,
      "##istic": 9211,
      "Aleksandr": 9212,
      "Ti": 9213,
      "##odi": 9214,
      "Дар": 9215,
      "brief": 9216,
      "##vale": 9217,
      "ends": 9218,
      "controlled": 9219,
      "shared": 9220,
      "1767": 9221,
      "##ляет": 9222,
      "pieces": 9223,
      "##ял": 9224,
      "институты": 9225,
      "Rossi": 9226,
      "ending": 9227,
      "LA": 9228,
      "##ules": 9229,
      "261": 9230,
      "Tournament": 9231,
      "##ivity": 9232,
      "AU": 9233,
      "Tell": 9234,
      "##dice": 9235,
      "##kol": 9236,
      "##roy": 9237,
      "##lim": 9238,
      "мужчин": 9239,
      "##vista": 9240,
      "##эд": 9241,
      "дело": 9242,
      "user": 9243,
      "1650": 9244,
      "electoral": 9245,
      "##dla": 9246,
      "##onne": 9247,
      "creating": 9248,
      "284": 9249,
      "яп": 9250,
      "основе": 9251,
      "совет": 9252,
      "лейтенант": 9253,
      "constant": 9254,
      "cor": 9255,
      "extensive": 9256,
      "##mpe": 9257,
      "##ody": 9258,
      "dt": 9259,
      "simples": 9260,
      "Kun": 9261,
      "##жил": 9262,
      "Stop": 9263,
      "##bte": 9264,
      "Inside": 9265,
      "281": 9266,
      "##щее": 9267,
      "mark": 9268,
      "258": 9269,
      "launch": 9270,
      "470": 9271,
      "Enterprise": 9272,
      "Technical": 9273,
      "##bir": 9274,
      "Monica": 9275,
      "Salt": 9276,
      "Mills": 9277,
      "Montenegro": 9278,
      "acts": 9279,
      "информации": 9280,
      "Ing": 9281,
      "##fn": 9282,
      "##lal": 9283,
      "287": 9284,
      "##bridge": 9285,
      "portal": 9286,
      "##эт": 9287,
      "##oku": 9288,
      "##vere": 9289,
      "##мент": 9290,
      "Status": 9291,
      "##тно": 9292,
      "##ици": 9293,
      "capable": 9294,
      "форма": 9295,
      "исто": 9296,
      "полностью": 9297,
      "названием": 9298,
      "Bradley": 9299,
      "agriculture": 9300,
      "hoc": 9301,
      "##osti": 9302,
      "prevent": 9303,
      "Jeffrey": 9304,
      "##lant": 9305,
      "pal": 9306,
      "object": 9307,
      "майор": 9308,
      "Fighter": 9309,
      "Ph": 9310,
      "мир": 9311,
      "##fia": 9312,
      "правило": 9313,
      "током": 9314,
      "Denver": 9315,
      "##fin": 9316,
      "##bina": 9317,
      "derived": 9318,
      "Archives": 9319,
      "Prior": 9320,
      "##poli": 9321,
      "Brad": 9322,
      "##hm": 9323,
      "1762": 9324,
      "Comedy": 9325,
      "enemy": 9326,
      "278": 9327,
      "##nc": 9328,
      "setting": 9329,
      "Nokia": 9330,
      "##aus": 9331,
      "birds": 9332,
      "работ": 9333,
      "gay": 9334,
      "##нска": 9335,
      "338": 9336,
      "##war": 9337,
      "murder": 9338,
      "Bryant": 9339,
      "штат": 9340,
      "##ические": 9341,
      "##tata": 9342,
      "marketing": 9343,
      "rose": 9344,
      "297": 9345,
      "##dies": 9346,
      "tyre": 9347,
      "##ког": 9348,
      "292": 9349,
      "Churchill": 9350,
      "arrested": 9351,
      "powerful": 9352,
      "област": 9353,
      "##жал": 9354,
      "Bus": 9355,
      "1764": 9356,
      "Homo": 9357,
      "Brisbane": 9358,
      "Cell": 9359,
      "details": 9360,
      "##kola": 9361,
      "Trinity": 9362,
      "Московской": 9363,
      "Mail": 9364,
      "Ultimate": 9365,
      "560": 9366,
      "Adventure": 9367,
      "Андрей": 9368,
      "версии": 9369,
      "деревни": 9370,
      "Romanian": 9371,
      "rail": 9372,
      "profile": 9373,
      "CF": 9374,
      "##raf": 9375,
      "##лла": 9376,
      "259": 9377,
      "Deus": 9378,
      "##eder": 9379,
      "Лос": 9380,
      "D0": 9381,
      "Leone": 9382,
      "ideal": 9383,
      "Picture": 9384,
      "Andrews": 9385,
      "Together": 9386,
      "должность": 9387,
      "##yne": 9388,
      "Наука": 9389,
      "Train": 9390,
      "stay": 9391,
      "Trans": 9392,
      "collected": 9393,
      "##ау": 9394,
      "refused": 9395,
      "familiar": 9396,
      "первым": 9397,
      "Palais": 9398,
      "##yard": 9399,
      "debate": 9400,
      "##пер": 9401,
      "Bosnia": 9402,
      "OH": 9403,
      "308": 9404,
      "Vita": 9405,
      "MB": 9406,
      "formula": 9407,
      "##dler": 9408,
      "первых": 9409,
      "##uso": 9410,
      "##eru": 9411,
      "##тра": 9412,
      "Uganda": 9413,
      "chemical": 9414,
      "##пис": 9415,
      "LL": 9416,
      "employed": 9417,
      "hot": 9418,
      "сили": 9419,
      "##pad": 9420,
      "полковник": 9421,
      "##бо": 9422,
      "##ree": 9423,
      "Rede": 9424,
      "321": 9425,
      "Galaxy": 9426,
      "symbol": 9427,
      "267": 9428,
      "##far": 9429,
      "Moldova": 9430,
      "##ией": 9431,
      "category": 9432,
      "##cut": 9433,
      "##ху": 9434,
      "##rme": 9435,
      "269": 9436,
      "##ification": 9437,
      "##еп": 9438,
      "контракт": 9439,
      "английски": 9440,
      "язык": 9441,
      "Bailey": 9442,
      "fought": 9443,
      "языке": 9444,
      "##ligen": 9445,
      "##уди": 9446,
      "311": 9447,
      "корпус": 9448,
      "##rand": 9449,
      "Anglo": 9450,
      "Airways": 9451,
      "Letters": 9452,
      "##aza": 9453,
      "Against": 9454,
      "speech": 9455,
      "citizens": 9456,
      "yellow": 9457,
      "Quest": 9458,
      "##nach": 9459,
      "336": 9460,
      "##ulus": 9461,
      "critics": 9462,
      "##TE": 9463,
      "publications": 9464,
      "дней": 9465,
      "Rat": 9466,
      "Singer": 9467,
      "medium": 9468,
      "Nur": 9469,
      "помощью": 9470,
      "approved": 9471,
      "283": 9472,
      "Architecture": 9473,
      "consecutive": 9474,
      "universal": 9475,
      "internal": 9476,
      "Parc": 9477,
      "Danish": 9478,
      "Gilles": 9479,
      "reduce": 9480,
      "Trail": 9481,
      "буде": 9482,
      "Molecular": 9483,
      "Date": 9484,
      "commissioned": 9485,
      "##sul": 9486,
      "Isla": 9487,
      "translated": 9488,
      "##уть": 9489,
      "technical": 9490,
      "##idi": 9491,
      "offices": 9492,
      "Watch": 9493,
      "tours": 9494,
      "##enz": 9495,
      "##мана": 9496,
      "альбома": 9497,
      "compilation": 9498,
      "performing": 9499,
      "Creation": 9500,
      "mineral": 9501,
      "##raz": 9502,
      "##ющего": 9503,
      "##лав": 9504,
      "ri": 9505,
      "512": 9506,
      "fie": 9507,
      "screen": 9508,
      "Made": 9509,
      "##вор": 9510,
      "ICAO": 9511,
[...]
